<pad>	0
<unk>	0
<s>	0
</s>	0
<0x00>	0
<0x01>	0
<0x02>	0
<0x03>	0
<0x04>	0
<0x05>	0
<0x06>	0
<0x07>	0
<0x08>	0
<0x09>	0
<0x0A>	0
<0x0B>	0
<0x0C>	0
<0x0D>	0
<0x0E>	0
<0x0F>	0
<0x10>	0
<0x11>	0
<0x12>	0
<0x13>	0
<0x14>	0
<0x15>	0
<0x16>	0
<0x17>	0
<0x18>	0
<0x19>	0
<0x1A>	0
<0x1B>	0
<0x1C>	0
<0x1D>	0
<0x1E>	0
<0x1F>	0
<0x20>	0
<0x21>	0
<0x22>	0
<0x23>	0
<0x24>	0
<0x25>	0
<0x26>	0
<0x27>	0
<0x28>	0
<0x29>	0
<0x2A>	0
<0x2B>	0
<0x2C>	0
<0x2D>	0
<0x2E>	0
<0x2F>	0
<0x30>	0
<0x31>	0
<0x32>	0
<0x33>	0
<0x34>	0
<0x35>	0
<0x36>	0
<0x37>	0
<0x38>	0
<0x39>	0
<0x3A>	0
<0x3B>	0
<0x3C>	0
<0x3D>	0
<0x3E>	0
<0x3F>	0
<0x40>	0
<0x41>	0
<0x42>	0
<0x43>	0
<0x44>	0
<0x45>	0
<0x46>	0
<0x47>	0
<0x48>	0
<0x49>	0
<0x4A>	0
<0x4B>	0
<0x4C>	0
<0x4D>	0
<0x4E>	0
<0x4F>	0
<0x50>	0
<0x51>	0
<0x52>	0
<0x53>	0
<0x54>	0
<0x55>	0
<0x56>	0
<0x57>	0
<0x58>	0
<0x59>	0
<0x5A>	0
<0x5B>	0
<0x5C>	0
<0x5D>	0
<0x5E>	0
<0x5F>	0
<0x60>	0
<0x61>	0
<0x62>	0
<0x63>	0
<0x64>	0
<0x65>	0
<0x66>	0
<0x67>	0
<0x68>	0
<0x69>	0
<0x6A>	0
<0x6B>	0
<0x6C>	0
<0x6D>	0
<0x6E>	0
<0x6F>	0
<0x70>	0
<0x71>	0
<0x72>	0
<0x73>	0
<0x74>	0
<0x75>	0
<0x76>	0
<0x77>	0
<0x78>	0
<0x79>	0
<0x7A>	0
<0x7B>	0
<0x7C>	0
<0x7D>	0
<0x7E>	0
<0x7F>	0
<0x80>	0
<0x81>	0
<0x82>	0
<0x83>	0
<0x84>	0
<0x85>	0
<0x86>	0
<0x87>	0
<0x88>	0
<0x89>	0
<0x8A>	0
<0x8B>	0
<0x8C>	0
<0x8D>	0
<0x8E>	0
<0x8F>	0
<0x90>	0
<0x91>	0
<0x92>	0
<0x93>	0
<0x94>	0
<0x95>	0
<0x96>	0
<0x97>	0
<0x98>	0
<0x99>	0
<0x9A>	0
<0x9B>	0
<0x9C>	0
<0x9D>	0
<0x9E>	0
<0x9F>	0
<0xA0>	0
<0xA1>	0
<0xA2>	0
<0xA3>	0
<0xA4>	0
<0xA5>	0
<0xA6>	0
<0xA7>	0
<0xA8>	0
<0xA9>	0
<0xAA>	0
<0xAB>	0
<0xAC>	0
<0xAD>	0
<0xAE>	0
<0xAF>	0
<0xB0>	0
<0xB1>	0
<0xB2>	0
<0xB3>	0
<0xB4>	0
<0xB5>	0
<0xB6>	0
<0xB7>	0
<0xB8>	0
<0xB9>	0
<0xBA>	0
<0xBB>	0
<0xBC>	0
<0xBD>	0
<0xBE>	0
<0xBF>	0
<0xC0>	0
<0xC1>	0
<0xC2>	0
<0xC3>	0
<0xC4>	0
<0xC5>	0
<0xC6>	0
<0xC7>	0
<0xC8>	0
<0xC9>	0
<0xCA>	0
<0xCB>	0
<0xCC>	0
<0xCD>	0
<0xCE>	0
<0xCF>	0
<0xD0>	0
<0xD1>	0
<0xD2>	0
<0xD3>	0
<0xD4>	0
<0xD5>	0
<0xD6>	0
<0xD7>	0
<0xD8>	0
<0xD9>	0
<0xDA>	0
<0xDB>	0
<0xDC>	0
<0xDD>	0
<0xDE>	0
<0xDF>	0
<0xE0>	0
<0xE1>	0
<0xE2>	0
<0xE3>	0
<0xE4>	0
<0xE5>	0
<0xE6>	0
<0xE7>	0
<0xE8>	0
<0xE9>	0
<0xEA>	0
<0xEB>	0
<0xEC>	0
<0xED>	0
<0xEE>	0
<0xEF>	0
<0xF0>	0
<0xF1>	0
<0xF2>	0
<0xF3>	0
<0xF4>	0
<0xF5>	0
<0xF6>	0
<0xF7>	0
<0xF8>	0
<0xF9>	0
<0xFA>	0
<0xFB>	0
<0xFC>	0
<0xFD>	0
<0xFE>	0
<0xFF>	0
то	-0
▁п	-1
та	-2
▁с	-3
ра	-4
ко	-5
ни	-6
▁о	-7
ро	-8
ет	-9
▁д	-10
▁та	-11
▁в	-12
ка	-13
кое	-14
▁такое	-15
ре	-16
▁Ч	-17
▁Что	-18
▁и	-19
ас	-20
но	-21
ва	-22
те	-23
на	-24
ме	-25
ны	-26
ля	-27
асс	-28
бъ	-29
▁-	-30
in	-31
ст	-32
ци	-33
ри	-34
каж	-35
▁a	-36
or	-37
за	-38
▁О	-39
▁Р	-40
▁по	-41
at	-42
кажи	-43
▁Расс	-44
▁Расскажи	-45
яс	-46
ти	-47
ени	-48
бъяс	-49
бъясни	-50
▁Объясни	-51
ис	-52
on	-53
ер	-54
ль	-55
▁со	-56
ло	-57
▁м	-58
мен	-59
it	-60
▁б	-61
ли	-62
▁s	-63
▁э	-64
er	-65
ле	-66
ере	-67
да	-68
▁t	-69
▁ко	-70
▁ра	-71
во	-72
▁про	-73
▁для	-74
is	-75
бо	-76
le	-77
нны	-78
ми	-79
▁К	-80
re	-81
ма	-82
ть	-83
▁f	-84
▁за	-85
го	-86
ру	-87
▁да	-88
ак	-89
не	-90
▁W	-91
▁ф	-92
▁m	-93
гра	-94
ция	-95
▁данны	-96
ки	-97
▁Как	-98
ow	-99
▁H	-100
▁к	-101
▁у	-102
ar	-103
▁S	-104
▁p	-105
по	-106
▁рабо	-107
al	-108
en	-109
▁b	-110
▁а	-111
▁ч	-112
ерв	-113
ная	-114
▁на	-115
es	-116
▁P	-117
▁d	-118
▁w	-119
ion	-120
▁ре	-121
ения	-122
рова	-123
лемен	-124
ra	-125
▁об	-126
ение	-127
▁при	-128
el	-129
pt	-130
ес	-131
ку	-132
ши	-133
▁J	-134
яет	-135
▁это	-136
▁данных	-137
▁элемен	-138
ла	-139
ун	-140
▁A	-141
▁ст	-142
▁объ	-143
ce	-144
th	-145
зо	-146
▁C	-147
▁c	-148
лож	-149
унк	-150
▁вы	-151
▁до	-152
ност	-153
ct	-154
nd	-155
pl	-156
se	-157
ди	-158
ек	-159
hat	-160
ние	-161
▁is	-162
▁What	-163
▁пере	-164
▁работа	-165
ri	-166
ду	-167
зу	-168
ту	-169
ты	-170
▁T	-171
▁х	-172
ing	-173
ное	-174
▁to	-175
▁How	-176
▁функ	-177
st	-178
▁=	-179
зда	-180
ный	-181
тов	-182
▁ме	-183
вает	-184
▁зап	-185
▁созда	-186
ck	-187
▁O	-188
ера	-189
▁мо	-190
▁оп	-191
ляет	-192
ность	-193
▁работает	-194
QL	-195
bo	-196
ed	-197
lo	-198
ro	-199
ви	-200
до	-201
ща	-202
▁D	-203
▁n	-204
ort	-205
лго	-206
ров	-207
грам	-208
▁объек	-209
Sc	-210
ch	-211
va	-212
де	-213
мы	-214
чи	-215
ют	-216
▁M	-217
▁R	-218
yth	-219
ные	-220
рит	-221
рти	-222
▁из	-223
Scri	-224
асси	-225
зова	-226
▁пре	-227
ython	-228
Script	-229
▁масси	-230
▁Python	-231
лю	-232
ну	-233
ый	-234
ent	-235
ork	-236
бли	-237
ран	-238
ста	-239
ции	-240
▁and	-241
▁серв	-242
▁програм	-243
et	-244
ut	-245
си	-246
ёт	-247
▁F	-248
▁o	-249
ain	-250
ava	-251
нте	-252
рос	-253
▁ба	-254
▁де	-255
▁не	-256
▁Java	-257
▁поис	-258
лгорит	-259
льзова	-260
▁JavaScript	-261
Ex	-262
PI	-263
eb	-264
ge	-265
ue	-266
ай	-267
еб	-268
зы	-269
▁h	-270
▁i	-271
▁П	-272
▁г	-273
зна	-274
люч	-275
ния	-276
пол	-277
рук	-278
тор	-279
▁Ex	-280
▁in	-281
▁ка	-282
bout	-283
знач	-284
▁гра	-285
▁стро	-286
ртиров	-287
▁about	-288
▁опера	-289
ad	-290
an	-291
ef	-292
ве	-293
мо	-294
ор	-295
фи	-296
▁B	-297
▁G	-298
ell	-299
пис	-300
▁HT	-301
▁do	-302
▁me	-303
▁re	-304
▁st	-305
▁би	-306
▁от	-307
нная	-308
щает	-309
▁SQL	-310
▁как	-311
▁раз	-312
plain	-313
▁Tell	-314
▁выпол	-315
рование	-316
▁запрос	-317
▁Explain	-318
▁функция	-319
▁пользова	-320
ap	-321
em	-322
ex	-323
вя	-324
об	-325
▁q	-326
▁С	-327
▁е	-328
gra	-329
ile	-330
вер	-331
жду	-332
сто	-333
чес	-334
ыти	-335
▁бы	-336
▁те	-337
исте	-338
рани	-339
теля	-340
▁API	-341
▁for	-342
▁между	-343
▁выполн	-344
▁массив	-345
▁провер	-346
▁алгорит	-347
▁сортиров	-348
()	-349
TP	-350
as	-351
od	-352
ul	-353
um	-354
▁N	-355
▁И	-356
ate	-357
ind	-358
ran	-359
нно	-360
ном	-361
рав	-362
спо	-363
▁во	-364
▁па	-365
блиц	-366
ений	-367
ерез	-368
зует	-369
рует	-370
тель	-371
▁веб	-372
▁свя	-373
▁сет	-374
ation	-375
рукту	-376
▁HTTP	-377
▁work	-378
▁знач	-379
▁спис	-380
▁систе	-381
▁через	-382
')	-383
('	-384
SS	-385
ub	-386
би	-387
же	-388
ир	-389
мя	-390
па	-391
рк	-392
ся	-393
уч	-394
▁т	-395
ack	-396
ath	-397
ice	-398
есс	-399
йст	-400
нов	-401
рей	-402
сту	-403
туа	-404
цию	-405
▁if	-406
▁th	-407
▁wh	-408
▁ма	-409
▁ти	-410
▁ус	-411
arse	-412
ласс	-413
орма	-414
цесс	-415
ытия	-416
▁Web	-417
▁con	-418
зация	-419
иртуа	-420
▁does	-421
▁sort	-422
▁быст	-423
▁ключ	-424
▁кода	-425
▁мето	-426
▁моду	-427
▁перв	-428
▁слож	-429
▁измен	-430
▁поиск	-431
▁храни	-432
▁данные	-433
▁создаёт	-434
▁элемент	-435
▁проверяет	-436
▁пользователя	-437
ID	-438
ON	-439
di	-440
ey	-441
om	-442
rr	-443
ur	-444
ve	-445
ги	-446
ды	-447
ей	-448
еш	-449
нт	-450
ры	-451
ря	-452
ша	-453
щи	-454
▁l	-455
▁u	-456
▁М	-457
SON	-458
age	-459
ble	-460
ies	-461
ise	-462
ist	-463
key	-464
ver	-465
ами	-466
вра	-467
дин	-468
зво	-469
исы	-470
кой	-471
мво	-472
ных	-473
сти	-474
тек	-475
цио	-476
▁fi	-477
▁qu	-478
▁бе	-479
▁вс	-480
▁од	-481
else	-482
обра	-483
рабо	-484
▁arr	-485
▁bit	-486
▁pro	-487
▁вре	-488
▁сво	-489
▁соб	-490
▁что	-491
вляет	-492
мворк	-493
споль	-494
▁JSON	-495
▁дела	-496
▁зада	-497
▁связ	-498
▁усло	-499
▁parse	-500
▁досту	-501
▁конте	-502
▁виртуа	-503
▁прилож	-504
▁строку	-505
образует	-506
реймворк	-507
▁запросы	-508
▁система	-509
▁значения	-510
▁элемента	-511
▁элементов	-512
▁преобразует	-513
SL	-514
eo	-515
ig	-516
oS	-517
sy	-518
yp	-519
ба	-520
ву	-521
дь	-522
ем	-523
ин	-524
лы	-525
мп	-526
ов	-527
ок	-528
пи	-529
ск	-530
хо	-531
▁:	-532
▁X	-533
▁А	-534
act	-535
int	-536
ith	-537
ode	-538
sit	-539
вет	-540
вие	-541
иси	-542
лас	-543
мая	-544
нти	-545
ную	-546
при	-547
рат	-548
сия	-549
ток	-550
шин	-551
▁==	-552
▁=>	-553
▁it	-554
▁my	-555
▁ши	-556
cept	-557
gram	-558
loat	-559
vent	-560
вать	-561
един	-562
лова	-563
ника	-564
тека	-565
тера	-566
▁CSS	-567
▁Git	-568
▁SSL	-569
▁how	-570
▁the	-571
▁воз	-572
ction	-573
работ	-574
▁Math	-575
▁база	-576
▁граф	-577
▁дере	-578
▁инте	-579
▁обуч	-580
чивает	-581
вращает	-582
спользу	-583
▁переда	-584
▁поиска	-585
▁работы	-586
▁таблиц	-587
▁хранит	-588
▁события	-589
▁структу	-590
▁программи	-591
▁программы	-592
..	-593
?.	-594
OR	-595
St	-596
du	-597
go	-598
im	-599
ir	-600
op	-601
pa	-602
вы	-603
гу	-604
зи	-605
ик	-606
йн	-607
нд	-608
рс	-609
рь	-610
су	-611
уз	-612
ус	-613
ше	-614
ще	-615
▁'	-616
▁V	-617
▁{	-618
▁Б	-619
all	-620
ary	-621
ber	-622
ear	-623
end	-624
ess	-625
ick	-626
ive	-627
las	-628
lex	-629
loc	-630
ock	-631
pre	-632
ter	-633
uth	-634
вто	-635
инх	-636
йро	-637
йте	-638
ком	-639
кру	-640
лек	-641
нии	-642
нта	-643
рая	-644
ющи	-645
▁OR	-646
▁ne	-647
▁pr	-648
▁ас	-649
▁ги	-650
▁им	-651
▁оч	-652
▁уп	-653
Stor	-654
duce	-655
lear	-656
lect	-657
ring	-658
sort	-659
wise	-660
блио	-661
виси	-662
дель	-663
исло	-664
йнер	-665
логи	-666
нами	-667
нима	-668
рауз	-669
реде	-670
стоя	-671
сурс	-672
тать	-673
фика	-674
▁Big	-675
▁Pro	-676
▁are	-677
▁spl	-678
▁вер	-679
▁вне	-680
▁дру	-681
▁или	-682
▁кор	-683
▁фай	-684
▁хеш	-685
▁час	-686
orker	-687
umber	-688
ередь	-689
инхро	-690
ности	-691
▁find	-692
▁quer	-693
▁доба	-694
▁комп	-695
▁сеть	-696
▁хран	-697
зывает	-698
прилож	-699
раняет	-700
чность	-701
шинное	-702
▁while	-703
▁брауз	-704
▁интер	-705
▁класс	-706
▁нейро	-707
▁позво	-708
▁прото	-709
▁слова	-710
▁число	-711
Storage	-712
единяет	-713
ризация	-714
ровании	-715
▁Worker	-716
▁методы	-717
▁объект	-718
▁ресурс	-719
▁список	-720
ределяет	-721
▁bitwise	-722
▁program	-723
▁асинхро	-724
▁объекта	-725
▁перемен	-726
▁процесс	-727
▁сервера	-728
▁функции	-729
▁виртуаль	-730
▁обучение	-731
▁создания	-732
▁алгоритма	-733
▁фреймворк	-734
▁возвращает	-735
▁объединяет	-736
▁сортировка	-737
▁сортировки	-738
):	-739
In	-740
LS	-741
ML	-742
aN	-743
ab	-744
ay	-745
fl	-746
ia	-747
ic	-748
if	-749
je	-750
jo	-751
js	-752
lg	-753
mp	-754
ms	-755
na	-756
nc	-757
ol	-758
ox	-759
us	-760
ах	-761
га	-762
дя	-763
ен	-764
жа	-765
кл	-766
лё	-767
му	-768
пе	-769
пу	-770
пы	-771
рт	-772
се	-773
цу	-774
цы	-775
ым	-776
ью	-777
▁I	-778
▁L	-779
▁e	-780
▁g	-781
▁В	-782
▁Г	-783
▁Д	-784
▁Н	-785
▁я	-786
Int	-787
TLS	-788
ach	-789
arr	-790
cat	-791
der	-792
eof	-793
est	-794
for	-795
gul	-796
ine	-797
ity	-798
mit	-799
nit	-800
ori	-801
rid	-802
tur	-803
ull	-804
ure	-805
yst	-806
вия	-807
вля	-808
вно	-809
вое	-810
гру	-811
дит	-812
дом	-813
ене	-814
зак	-815
зоп	-816
кур	-817
лад	-818
лей	-819
лиз	-820
нар	-821
нци	-822
раж	-823
рес	-824
ром	-825
рот	-826
сле	-827
юща	-828
▁Ag	-829
▁An	-830
▁Po	-831
▁RA	-832
▁Re	-833
▁de	-834
▁ex	-835
▁op	-836
▁sl	-837
▁tr	-838
▁ди	-839
▁жа	-840
▁ин	-841
▁ли	-842
▁но	-843
▁пр	-844
▁пу	-845
▁се	-846
▁ци	-847
▁ша	-848
alsy	-849
ance	-850
erge	-851
etch	-852
form	-853
join	-854
lgor	-855
lter	-856
ment	-857
ming	-858
ndle	-859
oSQL	-860
radi	-861
rans	-862
turn	-863
ueue	-864
айто	-865
бито	-866
груз	-867
емая	-868
еспе	-869
зуют	-870
круж	-871
мати	-872
нной	-873
нным	-874
нтро	-875
рину	-876
рные	-877
товы	-878
уска	-879
ющих	-880
▁===	-881
▁ORM	-882
▁bin	-883
▁bub	-884
▁dat	-885
▁def	-886
▁imp	-887
▁key	-888
▁map	-889
▁mod	-890
▁typ	-891
▁use	-892
▁web	-893
▁Про	-894
▁без	-895
▁бло	-896
▁гиб	-897
▁дву	-898
▁дис	-899
▁еди	-900
▁изо	-901
▁каж	-902
▁кон	-903
▁мно	-904
▁мож	-905
▁пла	-906
▁пра	-907
▁реа	-908
▁сбо	-909
▁сох	-910
▁шиф	-911
Float	-912
earch	-913
gular	-914
order	-915
ystem	-916
блица	-917
зопас	-918
кумен	-919
ривет	-920
сключ	-921
форма	-922
чески	-923
▁Date	-924
▁else	-925
▁авто	-926
▁базы	-927
▁импо	-928
▁копи	-929
▁логи	-930
▁памя	-931
▁помо	-932
▁реша	-933
▁стек	-934
▁тест	-935
▁типо	-936
▁тран	-937
sition	-938
жность	-939
никаль	-940
▁Agile	-941
▁NoSQL	-942
▁algor	-943
▁fetch	-944
▁print	-945
▁queue	-946
▁бинар	-947
▁время	-948
▁дейст	-949
▁корте	-950
▁окруж	-951
▁пайто	-952
▁серве	-953
▁форма	-954
битовое	-955
лизация	-956
нтифика	-957
работки	-958
рования	-959
таблица	-960
▁binary	-961
▁filter	-962
▁reduce	-963
▁return	-964
▁search	-965
▁system	-966
▁typeof	-967
▁библио	-968
▁быстро	-969
▁дерево	-970
▁динами	-971
▁задачи	-972
▁компью	-973
▁контро	-974
▁обеспе	-975
▁первый	-976
▁первым	-977
▁принци	-978
▁свойст	-979
значение	-980
ставляет	-981
▁Алгорит	-982
▁безопас	-983
▁выполня	-984
▁докумен	-985
▁доступа	-986
▁запуска	-987
▁массива	-988
▁модулей	-989
▁очередь	-990
▁протоко	-991
▁сервере	-992
▁уникаль	-993
▁условие	-994
мирование	-995
▁algorith	-996
▁parseInt	-997
▁Использу	-998
▁алгоритм	-999
▁браузере	-1000
▁изменяет	-1001
▁машинное	-1002
▁объектов	-1003
▁оператор	-1004
▁хранения	-1005
▁контейнер	-1006
▁побитовое	-1007
▁позволяет	-1008
▁сложность	-1009
▁сохраняет	-1010
▁структура	-1011
▁parseFloat	-1012
▁приложение	-1013
▁programming	-1014
▁Используйте	-1015
▁обеспечивает	-1016
',	-1017
((	-1018
),	-1019
AX	-1020
Al	-1021
CD	-1022
DB	-1023
DN	-1024
ES	-1025
FO	-1026
GL	-1027
IN	-1028
MQ	-1029
NS	-1030
OL	-1031
OM	-1032
PN	-1033
RF	-1034
Se	-1035
VG	-1036
WA	-1037
WT	-1038
ak	-1039
aw	-1040
bl	-1041
cr	-1042
dE	-1043
do	-1044
eg	-1045
me	-1046
of	-1047
ok	-1048
ot	-1049
ph	-1050
pm	-1051
sh	-1052
ss	-1053
un	-1054
xy	-1055
ym	-1056
ам	-1057
дё	-1058
жи	-1059
зе	-1060
ич	-1061
кс	-1062
нн	-1063
пл	-1064
со	-1065
сп	-1066
сы	-1067
ца	-1068
ча	-1069
чу	-1070
шё	-1071
эш	-1072
юю	-1073
ят	-1074
▁U	-1075
▁[	-1076
▁r	-1077
▁v	-1078
▁x	-1079
▁y	-1080
▁z	-1081
▁Т	-1082
▁Х	-1083
...	-1084
API	-1085
CID	-1086
Def	-1087
DoS	-1088
EST	-1089
IFO	-1090
JAX	-1091
Map	-1092
NaN	-1093
OIN	-1094
ORS	-1095
Pro	-1096
SQL	-1097
SRF	-1098
abb	-1099
ait	-1100
ale	-1101
ast	-1102
aul	-1103
bol	-1104
box	-1105
ddE	-1106
eak	-1107
emy	-1108
erv	-1109
etw	-1110
ext	-1111
fir	-1112
gre	-1113
jan	-1114
los	-1115
lst	-1116
ome	-1117
ont	-1118
ook	-1119
ore	-1120
pac	-1121
pag	-1122
ple	-1123
ree	-1124
rew	-1125
rit	-1126
seu	-1127
val	-1128
vas	-1129
ySe	-1130
ype	-1131
айт	-1132
бло	-1133
вад	-1134
вдо	-1135
вед	-1136
вли	-1137
вов	-1138
вом	-1139
вый	-1140
вых	-1141
гда	-1142
ейс	-1143
зык	-1144
йти	-1145
ках	-1146
кая	-1147
кий	-1148
ких	-1149
кра	-1150
кри	-1151
лит	-1152
лле	-1153
лоч	-1154
луч	-1155
мар	-1156
мые	-1157
над	-1158
ней	-1159
нет	-1160
общ	-1161
оно	-1162
ппа	-1163
рга	-1164
рич	-1165
рый	-1166
рях	-1167
сив	-1168
сть	-1169
тер	-1170
тив	-1171
той	-1172
уте	-1173
фик	-1174
хва	-1175
ций	-1176
чис	-1177
шел	-1178
шиб	-1179
шие	-1180
шёл	-1181
▁')	-1182
▁::	-1183
▁CI	-1184
▁OA	-1185
▁bu	-1186
▁ha	-1187
▁ob	-1188
▁of	-1189
▁po	-1190
▁sh	-1191
▁Ко	-1192
▁Па	-1193
▁Ст	-1194
▁вк	-1195
▁её	-1196
▁их	-1197
▁ми	-1198
▁ну	-1199
▁ос	-1200
▁пи	-1201
▁сх	-1202
▁хо	-1203
▁чи	-1204
Alch	-1205
Each	-1206
List	-1207
OLID	-1208
Sock	-1209
adow	-1210
allb	-1211
ault	-1212
crum	-1213
ding	-1214
edia	-1215
edis	-1216
efin	-1217
ello	-1218
empl	-1219
ener	-1220
eral	-1221
flow	-1222
goDB	-1223
ions	-1224
ispl	-1225
itMQ	-1226
lask	-1227
lass	-1228
list	-1229
mise	-1230
ning	-1231
olve	-1232
pack	-1233
read	-1234
ront	-1235
sync	-1236
uthy	-1237
very	-1238
вают	-1239
вить	-1240
вные	-1241
грес	-1242
гуля	-1243
диен	-1244
дные	-1245
дова	-1246
ексы	-1247
жела	-1248
жест	-1249
зуль	-1250
изво	-1251
коль	-1252
лако	-1253
лище	-1254
ллек	-1255
мена	-1256
наль	-1257
нием	-1258
ницу	-1259
нные	-1260
нный	-1261
ного	-1262
равн	-1263
ронн	-1264
серв	-1265
стая	-1266
стве	-1267
ству	-1268
така	-1269
типы	-1270
ться	-1271
фейс	-1272
ходя	-1273
циях	-1274
чном	-1275
ытие	-1276
ющая	-1277
▁Box	-1278
▁CDN	-1279
▁Can	-1280
▁DNS	-1281
▁DOM	-1282
▁Geo	-1283
▁JWT	-1284
▁Map	-1285
▁Mon	-1286
▁PWA	-1287
▁Ref	-1288
▁SVG	-1289
▁Set	-1290
▁Sym	-1291
▁VPN	-1292
▁Vue	-1293
▁XOR	-1294
▁XSS	-1295
▁com	-1296
▁fun	-1297
▁gra	-1298
▁lin	-1299
▁lit	-1300
▁loc	-1301
▁npm	-1302
▁opt	-1303
▁pre	-1304
▁str	-1305
▁sub	-1306
▁try	-1307
▁Гра	-1308
▁Псе	-1309
▁Хеш	-1310
▁ато	-1311
▁вос	-1312
▁все	-1313
▁гру	-1314
▁иде	-1315
▁мик	-1316
▁мне	-1317
▁под	-1318
▁реш	-1319
▁себ	-1320
▁так	-1321
▁тип	-1322
▁тра	-1323
▁уда	-1324
▁ука	-1325
ative	-1326
await	-1327
blems	-1328
bling	-1329
dient	-1330
first	-1331
index	-1332
ional	-1333
jango	-1334
ocker	-1335
opPro	-1336
orial	-1337
pread	-1338
press	-1339
ranch	-1340
seudo	-1341
stgre	-1342
value	-1343
вания	-1344
енера	-1345
ессия	-1346
зацию	-1347
класс	-1348
ладки	-1349
льном	-1350
ляцио	-1351
мости	-1352
навли	-1353
нного	-1354
ралле	-1355
ргани	-1356
релоч	-1357
ремен	-1358
струк	-1359
товых	-1360
торая	-1361
торый	-1362
хваты	-1363
ходит	-1364
▁ACID	-1365
▁AJAX	-1366
▁CORS	-1367
▁CSRF	-1368
▁DDoS	-1369
▁Fast	-1370
▁Flex	-1371
▁Grid	-1372
▁HTML	-1373
▁JOIN	-1374
▁Node	-1375
▁RAID	-1376
▁REST	-1377
▁Rabb	-1378
▁Serv	-1379
▁Type	-1380
▁Weak	-1381
▁addE	-1382
▁code	-1383
▁data	-1384
▁inje	-1385
▁inst	-1386
▁join	-1387
▁lear	-1388
▁list	-1389
▁need	-1390
▁null	-1391
▁open	-1392
▁sess	-1393
▁some	-1394
▁stat	-1395
▁tree	-1396
▁unit	-1397
▁with	-1398
▁writ	-1399
▁алго	-1400
▁базе	-1401
▁внед	-1402
▁внеш	-1403
▁вспл	-1404
▁испо	-1405
▁крат	-1406
▁маши	-1407
▁надё	-1408
▁неза	-1409
▁нота	-1410
▁обра	-1411
▁одно	-1412
▁ошиб	-1413
▁пары	-1414
▁поле	-1415
▁прав	-1416
▁пред	-1417
▁раск	-1418
▁расп	-1419
▁сете	-1420
▁тени	-1421
▁упро	-1422
▁файл	-1423
▁цикл	-1424
▁язык	-1425
Socket	-1426
ackend	-1427
anceof	-1428
efined	-1429
essage	-1430
isplay	-1431
lector	-1432
losure	-1433
ookies	-1434
pacity	-1435
radius	-1436
rewall	-1437
shadow	-1438
string	-1439
вадрат	-1440
ваемая	-1441
грация	-1442
грузки	-1443
диенты	-1444
дитель	-1445
ервисы	-1446
закция	-1447
зульта	-1448
классы	-1449
курсия	-1450
ластер	-1451
лизуют	-1452
лирова	-1453
лирует	-1454
меняет	-1455
ндексы	-1456
ровать	-1457
сервер	-1458
станта	-1459
ческие	-1460
ческое	-1461
элемен	-1462
▁Flask	-1463
▁HTTPS	-1464
▁Media	-1465
▁OAuth	-1466
▁Proxy	-1467
▁React	-1468
▁Redis	-1469
▁SOLID	-1470
▁Scrum	-1471
▁WebGL	-1472
▁every	-1473
▁falsy	-1474
▁graph	-1475
▁isNaN	-1476
▁local	-1477
▁merge	-1478
▁model	-1479
▁point	-1480
▁quick	-1481
▁slice	-1482
▁solve	-1483
▁split	-1484
▁trans	-1485
▁анима	-1486
▁атака	-1487
▁базах	-1488
▁выраж	-1489
▁вычис	-1490
▁вышел	-1491
▁графи	-1492
▁графы	-1493
▁друго	-1494
▁задач	-1495
▁итера	-1496
▁когда	-1497
▁кодом	-1498
▁копию	-1499
▁корот	-1500
▁можно	-1501
▁найти	-1502
▁облас	-1503
▁одном	-1504
▁описы	-1505
▁после	-1506
▁поток	-1507
▁разби	-1508
▁связь	-1509
▁связя	-1510
▁сообщ	-1511
▁тести	-1512
▁типов	-1513
▁управ	-1514
▁уравн	-1515
▁файлы	-1516
▁части	-1517
▁шабло	-1518
Alchemy	-1519
Default	-1520
allback	-1521
emplate	-1522
rontend	-1523
verflow	-1524
грессив	-1525
сторонн	-1526
структу	-1527
циональ	-1528
▁Canvas	-1529
▁Django	-1530
▁Docker	-1531
▁Geoloc	-1532
▁Symbol	-1533
▁border	-1534
▁bubble	-1535
▁concat	-1536
▁except	-1537
▁handle	-1538
▁import	-1539
▁number	-1540
▁pseudo	-1541
▁splice	-1542
▁string	-1543
▁Привет	-1544
▁Псевдо	-1545
▁атомар	-1546
▁гибкой	-1547
▁группа	-1548
▁доступ	-1549
▁жадные	-1550
▁зависи	-1551
▁импорт	-1552
▁исключ	-1553
▁кортеж	-1554
▁модель	-1555
▁нежела	-1556
▁обтека	-1557
▁органи	-1558
▁отдель	-1559
▁памяти	-1560
▁постоя	-1561
▁привед	-1562
▁пришёл	-1563
▁програ	-1564
▁работу	-1565
▁разных	-1566
▁регуля	-1567
▁решать	-1568
▁состоя	-1569
▁списки	-1570
▁страни	-1571
▁строки	-1572
▁трафик	-1573
▁читать	-1574
▁ширину	-1575
Listener	-1576
actorial	-1577
gradient	-1578
ndefined	-1579
opPropag	-1580
stgreSQL	-1581
енератор	-1582
льзовать	-1583
раллелиз	-1584
рачивает	-1585
станавли	-1586
формации	-1587
элементы	-1588
▁Angular	-1589
▁FastAPI	-1590
▁Flexbox	-1591
▁MongoDB	-1592
▁Promise	-1593
▁Reflect	-1594
▁Service	-1595
▁WeakMap	-1596
▁Workers	-1597
▁forEach	-1598
▁literal	-1599
▁prevent	-1600
▁queries	-1601
▁querySe	-1602
▁session	-1603
▁Процесс	-1604
▁быстрая	-1605
▁быстрый	-1606
▁добавля	-1607
▁которая	-1608
▁который	-1609
▁массивы	-1610
▁множест	-1611
▁объекты	-1612
▁пайтоне	-1613
▁произво	-1614
▁реляцио	-1615
▁решения	-1616
▁систему	-1617
▁словарь	-1618
▁создать	-1619
▁создают	-1620
▁сртиров	-1621
▁формате	-1622
▁функцию	-1623
ransition	-1624
вадратное	-1625
росервисы	-1626
фреймворк	-1627
хватывает	-1628
▁RabbitMQ	-1629
▁addEvent	-1630
▁function	-1631
▁problems	-1632
▁автомати	-1633
▁бинарный	-1634
▁быстрого	-1635
▁всплытие	-1636
▁действие	-1637
▁запросов	-1638
▁значение	-1639
▁интернет	-1640
▁использу	-1641
▁массивов	-1642
▁независи	-1643
▁операции	-1644
▁передачи	-1645
▁принципу	-1646
▁проверку	-1647
▁протокол	-1648
▁результа	-1649
▁ресурсам	-1650
▁свойства	-1651
▁серверов	-1652
▁словарях	-1653
▁упрощает	-1654
▁функциях	-1655
▁элементы	-1656
приложений	-1657
утентифика	-1658
▁WebSocket	-1659
▁algorithm	-1660
▁injection	-1661
▁quicksort	-1662
▁Алгоритмы	-1663
▁алгоритмы	-1664
▁выполняет	-1665
▁выражения	-1666
▁изменений	-1667
▁изолирова	-1668
▁интерфейс	-1669
▁константа	-1670
▁нейронная	-1671
▁объектами	-1672
▁окружение	-1673
▁ресурсами	-1674
▁управляет	-1675
▁уравнение	-1676
▁хранилище	-1677
▁PostgreSQL	-1678
▁SQLAlchemy	-1679
▁TypeScript	-1680
▁instanceof	-1681
▁stopPropag	-1682
▁библиотека	-1683
▁выполнение	-1684
▁выполнения	-1685
▁компьютера	-1686
▁нежелатель	-1687
▁определяет	-1688
▁переменная	-1689
▁приложений	-1690
▁прогрессив	-1691
▁разработки	-1692
▁регулярные	-1693
▁структурах	-1694
▁шифрование	-1695
▁Geolocation	-1696
▁асинхронной	-1697
▁виртуальное	-1698
▁зависимости	-1699
▁localStorage	-1700
▁динамическое	-1701
▁использовать	-1702
▁контролирует	-1703
▁представляет	-1704
▁распределяет	-1705
структуризация	-1706
▁querySelector	-1707
▁перехватывает	-1708
▁производитель	-1709
▁preventDefault	-1710
▁sessionStorage	-1711
▁stopPropagation	-1712
▁програмирование	-1713
"}	-1714
&&	-1715
':	-1716
==	-1717
CP	-1718
IP	-1719
ND	-1720
PU	-1721
Qu	-1722
af	-1723
bs	-1724
ci	-1725
cl	-1726
fo	-1727
fu	-1728
gg	-1729
ho	-1730
il	-1731
iq	-1732
ks	-1733
ky	-1734
po	-1735
qr	-1736
sc	-1737
sl	-1738
tu	-1739
tx	-1740
wo	-1741
yC	-1742
ze	-1743
||	-1744
ая	-1745
бл	-1746
бы	-1747
вл	-1748
вь	-1749
дж	-1750
дн	-1751
ео	-1752
еп	-1753
зя	-1754
иф	-1755
ке	-1756
кр	-1757
кт	-1758
лг	-1759
лй	-1760
лу	-1761
от	-1762
рх	-1763
рё	-1764
уф	-1765
хн	-1766
ця	-1767
че	-1768
чс	-1769
чь	-1770
щь	-1771
ые	-1772
ьт	-1773
эк	-1774
яз	-1775
яя	-1776
▁"	-1777
▁>	-1778
▁`	-1779
▁з	-1780
▁н	-1781
▁ц	-1782
▁ш	-1783
(',	-1784
():	-1785
ade	-1786
are	-1787
cer	-1788
cim	-1789
cur	-1790
day	-1791
dit	-1792
edy	-1793
env	-1794
erg	-1795
err	-1796
fer	-1797
foc	-1798
gin	-1799
":	-1800
??.	-1801
alk	-1802
bef	-1803
een	-1804
elp	-1805
fra	-1806
his	-1807
ign	-1808
ild	-1809
imi	-1810
ish	-1811
led	-1812
mes	-1813
nam	-1814
pow	-1815
pro	-1816
pth	-1817
qrt	-1818
rim	-1819
rst	-1820
txt	-1821
uct	-1822
ugg	-1823
ава	-1824
аке	-1825
ама	-1826
бер	-1827
бор	-1828
ван	-1829
ват	-1830
виг	-1831
вны	-1832
воа	-1833
вои	-1834
вой	-1835
гов	-1836
дах	-1837
дер	-1838
дни	-1839
дня	-1840
дую	-1841
дям	-1842
едж	-1843
ело	-1844
емо	-1845
ери	-1846
етс	-1847
еть	-1848
жед	-1849
заи	-1850
зне	-1851
зра	-1852
зящ	-1853
изи	-1854
ись	-1855
кап	-1856
кер	-1857
кет	-1858
клы	-1859
кне	-1860
коу	-1861
кст	-1862
кти	-1863
лам	-1864
лия	-1865
лно	-1866
лой	-1867
лча	-1868
ляя	-1869
лёг	-1870
мер	-1871
нде	-1872
них	-1873
нию	-1874
ным	-1875
ори	-1876
пер	-1877
пом	-1878
пра	-1879
про	-1880
пят	-1881
раз	-1882
ргу	-1883
реч	-1884
рии	-1885
рим	-1886
рма	-1887
роб	-1888
рхи	-1889
ряд	-1890
ска	-1891
там	-1892
тоб	-1893
том	-1894
три	-1895
тры	-1896
тью	-1897
учи	-1898
цеп	-1899
ит	-1900
con	-1901
ops	-1902
spl	-1903
вья	-1904
дши	-1905
ект	-1906
иди	-1907
кус	-1908
кую	-1909
лан	-1910
рку	-1911
чай	-1912
чат	-1913
ший	-1914
шиф	-1915
ьме	-1916
эши	-1917
яся	-1918
▁IP	-1919
▁Qu	-1920
▁Tr	-1921
▁an	-1922
▁ch	-1923
▁cl	-1924
▁di	-1925
▁he	-1926
▁sp	-1927
▁ta	-1928
▁te	-1929
▁tu	-1930
▁{'	-1931
▁{}	-1932
▁БД	-1933
▁Бэ	-1934
▁ОС	-1935
▁Об	-1936
▁Оч	-1937
▁ад	-1938
▁ве	-1939
▁го	-1940
▁ис	-1941
▁иф	-1942
▁кк	-1943
▁ле	-1944
▁ни	-1945
▁он	-1946
▁ри	-1947
▁рё	-1948
▁сд	-1949
▁уг	-1950
▁уз	-1951
▁цы	-1952
abas	-1953
alan	-1954
alse	-1955
asks	-1956
bsol	-1957
ctal	-1958
curs	-1959
ence	-1960
ents	-1961
func	-1962
iles	-1963
inci	-1964
inim	-1965
ique	-1966
iron	-1967
irtu	-1968
isky	-1969
ject	-1970
json	-1971
late	-1972
line	-1973
nest	-1974
oale	-1975
ples	-1976
prop	-1977
ract	-1978
rand	-1979
rome	-1980
sqrt	-1981
tent	-1982
then	-1983
ural	-1984
авай	-1985
аран	-1986
аски	-1987
асле	-1988
аста	-1989
баты	-1990
блца	-1991
боль	-1992
бора	-1993
быто	-1994
вимо	-1995
влет	-1996
глас	-1997
гово	-1998
даль	-1999
ou	-2000
щё	-2001
ked	-2002
rot	-2003
вию	-2004
док	-2005
оду	-2006
▁lo	-2007
▁||	-2008
▁лю	-2009
▁ше	-2010
lock	-2011
виет	-2012
дина	-2013
дним	-2014
дого	-2015
дочи	-2016
драв	-2017
емые	-2018
ерво	-2019
ером	-2020
если	-2021
ется	-2022
жетс	-2023
зерв	-2024
знес	-2025
кает	-2026
ками	-2027
кими	-2028
ковы	-2029
крип	-2030
ксту	-2031
лево	-2032
линд	-2033
лное	-2034
лноф	-2035
луби	-2036
луча	-2037
лять	-2038
мени	-2039
мент	-2040
меня	-2041
мера	-2042
меют	-2043
мина	-2044
моде	-2045
мыка	-2046
мять	-2047
нель	-2048
нипу	-2049
нное	-2050
орие	-2051
оток	-2052
плой	-2053
рает	-2054
рами	-2055
рвоа	-2056
реда	-2057
рект	-2058
реса	-2059
рить	-2060
роди	-2061
року	-2062
роль	-2063
роме	-2064
сайт	-2065
ских	-2066
стые	-2067
стёт	-2068
такс	-2069
тати	-2070
теры	-2071
тими	-2072
тоне	-2073
торо	-2074
тору	-2075
хнюю	-2076
ходы	-2077
цате	-2078
чего	-2079
шить	-2080
щищё	-2081
щная	-2082
ьект	-2083
▁'',	-2084
▁??.	-2085
▁AND	-2086
▁GPU	-2087
▁Let	-2088
▁MyC	-2089
▁Not	-2090
▁TCP	-2091
▁XML	-2092
▁ana	-2093
▁box	-2094
▁deb	-2095
▁dev	-2096
▁dif	-2097
▁env	-2098
▁get	-2099
chn	-2100
ift	-2101
teg	-2102
ute	-2103
дый	-2104
лсе	-2105
сий	-2106
сию	-2107
чем	-2108
чик	-2109
чёт	-2110
▁Fi	-2111
aria	-2112
cale	-2113
orks	-2114
tegr	-2115
дела	-2116
ивет	-2117
кого	-2118
круг	-2119
ован	-2120
ртим	-2121
щают	-2122
▁has	-2123
▁hex	-2124
▁mar	-2125
▁not	-2126
▁obj	-2127
▁pal	-2128
▁pas	-2129
▁per	-2130
▁rot	-2131
▁set	-2132
▁sum	-2133
▁two	-2134
▁wan	-2135
▁you	-2136
▁Веб	-2137
▁Вот	-2138
▁Кон	-2139
▁Соб	-2140
▁Чем	-2141
▁алг	-2142
▁ана	-2143
▁асс	-2144
▁бро	-2145
▁буф	-2146
▁вдо	-2147
▁век	-2148
▁вет	-2149
▁вст	-2150
▁всё	-2151
▁гео	-2152
▁два	-2153
▁дво	-2154
▁его	-2155
▁изв	-2156
▁имп	-2157
▁ком	-2158
▁луч	-2159
▁лёг	-2160
▁мен	-2161
▁мес	-2162
▁моз	-2163
▁мус	-2164
▁нес	-2165
▁оно	-2166
▁оси	-2167
▁сме	-2168
▁сни	-2169
▁сти	-2170
▁тун	-2171
▁упа	-2172
▁упо	-2173
▁уст	-2174
▁уяз	-2175
▁фик	-2176
▁хэш	-2177
▁цве	-2178
Hello	-2179
after	-2180
aries	-2181
cimal	-2182
clare	-2183
error	-2184
esort	-2185
focus	-2186
grams	-2187
hover	-2188
iding	-2189
imize	-2190
indow	-2191
namic	-2192
ommit	-2193
posit	-2194
reate	-2195
reedy	-2196
scing	-2197
slice	-2198
split	-2199
}`	-2200
gex	-2201
map	-2202
oad	-2203
апи	-2204
ему	-2205
жит	-2206
▁?.	-2207
▁as	-2208
ания	-2209
вест	-2210
емой	-2211
зырь	-2212
нную	-2213
фици	-2214
ющий	-2215
▁NaN	-2216
▁pad	-2217
▁rel	-2218
▁вну	-2219
▁где	-2220
▁сай	-2221
▁умо	-2222
parse	-2223
ubled	-2224
апиши	-2225
вечес	-2226
вилам	-2227
вными	-2228
годня	-2229
графи	-2230
дшими	-2231
еджер	-2232
ением	-2233
ениям	-2234
ерево	-2235
ерная	-2236
еткой	-2237
жедне	-2238
заный	-2239
зицио	-2240
исами	-2241
ичную	-2242
ичный	-2243
крана	-2244
ктики	-2245
ладок	-2246
ланси	-2247
лгове	-2248
ления	-2249
лючая	-2250
ляции	-2251
ляция	-2252
менем	-2253
менов	-2254
мерно	-2255
надле	-2256
невый	-2257
новый	-2258
нолит	-2259
одуль	-2260
полни	-2261
право	-2262
равни	-2263
ратно	-2264
рение	-2265
ритмы	-2266
ровка	-2267
сокоу	-2268
стато	-2269
стнад	-2270
стоит	-2271
тарей	-2272
телям	-2273
тивно	-2274
товый	-2275
токен	-2276
ходят	-2277
циями	-2278
чатся	-2279
чское	-2280
яемая	-2281
▁Anim	-2282
▁LIFO	-2283
▁Load	-2284
▁Prim	-2285
▁Quer	-2286
▁This	-2287
▁Unit	-2288
▁best	-2289
▁betw	-2290
▁comp	-2291
▁flex	-2292
▁grid	-2293
▁hash	-2294
▁heap	-2295
▁help	-2296
▁math	-2297
▁merg	-2298
▁netw	-2299
())	-2300
ule	-2301
url	-2302
аза	-2303
жем	-2304
жен	-2305
рке	-2306
▁&&	-2307
▁()	-2308
▁Ми	-2309
dict	-2310
file	-2311
воря	-2312
ейро	-2313
коря	-2314
леги	-2315
хнов	-2316
▁Bub	-2317
▁fix	-2318
▁ran	-2319
▁why	-2320
крипт	-2321
лений	-2322
меная	-2323
▁Fore	-2324
▁main	-2325
▁next	-2326
▁offl	-2327
▁pass	-2328
▁path	-2329
▁radi	-2330
▁read	-2331
▁span	-2332
▁talk	-2333
▁text	-2334
▁them	-2335
▁this	-2336
▁want	-2337
▁when	-2338
▁whle	-2339
▁Авто	-2340
▁База	-2341
▁Граф	-2342
▁Каки	-2343
▁Моно	-2344
▁Пере	-2345
▁Сеть	-2346
▁Слож	-2347
▁Спис	-2348
▁аргу	-2349
▁близ	-2350
▁блок	-2351
▁взаи	-2352
▁види	-2353
▁влож	-2354
▁всей	-2355
▁вста	-2356
▁вызы	-2357
▁дроб	-2358
▁друг	-2359
▁елсе	-2360
▁есть	-2361
▁закр	-2362
▁заме	-2363
▁иера	-2364
▁исто	-2365
▁коор	-2366
▁кэши	-2367
▁мате	-2368
▁могу	-2369
▁мусо	-2370
▁объя	-2371
▁один	-2372
▁одну	-2373
▁окне	-2374
▁отда	-2375
▁отоб	-2376
▁паке	-2377
▁пока	-2378
▁прио	-2379
▁путь	-2380
▁разм	-2381
▁реак	-2382
▁рисо	-2383
▁роди	-2384
▁сайт	-2385
▁сама	-2386
▁сбое	-2387
▁свой	-2388
▁себе	-2389
▁себя	-2390
▁сети	-2391
▁сеьт	-2392
▁слия	-2393
▁соби	-2394
▁спри	-2395
▁стэк	-2396
▁счёт	-2397
▁твои	-2398
▁типа	-2399
).	-2400
ers	-2401
вые	-2402
дые	-2403
лях	-2404
юще	-2405
▁dy	-2406
▁Ма	-2407
code	-2408
elop	-2409
site	-2410
vert	-2411
ердь	-2412
ести	-2413
лами	-2414
сный	-2415
телю	-2416
тная	-2417
ющее	-2418
▁==.	-2419
▁Мик	-2420
▁Мне	-2421
▁син	-2422
▁сов	-2423
вести	-2424
зящем	-2425
логия	-2426
мнная	-2427
▁Null	-2428
▁Стек	-2429
▁типи	-2430
▁углы	-2431
▁физи	-2432
▁хоть	-2433
▁хочу	-2434
▁цыкл	-2435
▁чело	-2436
abases	-2437
achine	-2438
aining	-2439
ations	-2440
before	-2441
concat	-2442
ements	-2443
except	-2444
frames	-2445
inimum	-2446
lement	-2447
nested	-2448
orient	-2449
ortest	-2450
ractic	-2451
random	-2452
readth	-2453
ucture	-2454
ugging	-2455
аранти	-2456
граммы	-2457
динаты	-2458
довлет	-2459
жетсво	-2460
жности	-2461
закций	-2462
зателя	-2463
зирует	-2464
зовать	-2465
истент	-2466
йствия	-2467
кирует	-2468
коряют	-2469
курсию	-2470
ладкой	-2471
лекает	-2472
литель	-2473
ллекта	-2474
лубину	-2475
лучает	-2476
лчанию	-2477
ляющая	-2478
лённые	-2479
менная	-2480
менные	-2481
меняют	-2482
мерные	-2483
минант	-2484
ндерит	-2485
нейный	-2486
никает	-2487
носный	-2488
оновом	-2489
пертек	-2490
речами	-2491
рещает	-2492
ричная	-2493
ричную	-2494
руктры	-2495
рхичес	-2496
рядком	-2497
рядочи	-2498
сирова	-2499
'}	-2500
ify	-2501
жна	-2502
мок	-2503
▁{"	-2504
▁Би	-2505
▁Ре	-2506
icky	-2507
нить	-2508
ницы	-2509
ртма	-2510
щего	-2511
▁RAM	-2512
▁new	-2513
влять	-2514
водит	-2515
враща	-2516
енным	-2517
лекте	-2518
нтами	-2519
слежи	-2520
▁oper	-2521
▁дата	-2522
▁двух	-2523
▁если	-2524
▁текс	-2525
Number	-2526
active	-2527
irtual	-2528
lexity	-2529
number	-2530
reduce	-2531
ловарь	-2532
лённая	-2533
муника	-2534
нимает	-2535
станов	-2536
ствует	-2537
стотой	-2538
строку	-2539
таблца	-2540
таксис	-2541
тивная	-2542
тивное	-2543
тивной	-2544
тимизи	-2545
товном	-2546
торная	-2547
тотипы	-2548
ункция	-2549
цепцию	-2550
цессов	-2551
чайший	-2552
ческом	-2553
ческую	-2554
читать	-2555
щается	-2556
ющаяся	-2557
▁Async	-2558
▁Clear	-2559
▁Falsy	-2560
▁Float	-2561
▁Hello	-2562
▁Merge	-2563
▁Regex	-2564
▁Trans	-2565
▁absol	-2566
▁async	-2567
▁balan	-2568
▁block	-2569
▁build	-2570
▁class	-2571
▁clear	-2572
▁click	-2573
▁coale	-2574
▁const	-2575
▁depth	-2576
▁doing	-2577
▁event	-2578
▁false	-2579
▁files	-2580
▁first	-2581
▁fixed	-2582
▁float	-2583
▁learn	-2584
▁loops	-2585
▁masks	-2586
▁octal	-2587
▁range	-2588
▁risky	-2589
▁scale	-2590
▁shift	-2591
▁stack	-2592
▁table	-2593
▁techn	-2594
▁today	-2595
▁tuple	-2596
▁varia	-2597
▁write	-2598
▁Бэкап	-2599
neg	-2600
гих	-2601
▁UI	-2602
▁Де	-2603
name	-2604
▁...	-2605
▁Кэш	-2606
товые	-2607
▁FIFO	-2608
▁[...	-2609
▁Тран	-2610
▁диск	-2611
вающих	-2612
держит	-2613
ющихся	-2614
▁Давай	-2615
▁Итера	-2616
▁Какие	-2617
▁Класс	-2618
▁Конте	-2619
▁Нейро	-2620
▁Норма	-2621
▁Поток	-2622
▁Тести	-2623
▁базам	-2624
▁битов	-2625
▁блока	-2626
▁ветка	-2627
▁веток	-2628
▁влево	-2629
▁вредо	-2630
▁графе	-2631
▁даных	-2632
▁дерво	-2633
▁диски	-2634
▁жадые	-2635
▁заста	-2636
▁зачем	-2637
▁зашиф	-2638
▁имена	-2639
▁имеют	-2640
▁искус	-2641
▁кдела	-2642
▁ключа	-2643
▁кроме	-2644
▁левый	-2645
▁логин	-2646
▁людям	-2647
▁маски	-2648
▁месте	-2649
▁микро	-2650
▁может	-2651
▁мозга	-2652
▁набор	-2653
▁налож	-2654
▁напис	-2655
▁насле	-2656
▁научи	-2657
▁новый	-2658
▁норма	-2659
▁нужен	-2660
▁нужна	-2661
▁обнов	-2662
▁однов	-2663
▁основ	-2664
▁поска	-2665
▁права	-2666
▁предо	-2667
▁привя	-2668
▁проше	-2669
▁равно	-2670
▁разво	-2671
▁реали	-2672
▁рёбер	-2673
▁сайте	-2674
▁своей	-2675
▁связи	-2676
▁сдвиг	-2677
▁селек	-2678
▁сетки	-2679
▁сколь	-2680
▁скруг	-2681
▁сорти	-2682
▁среда	-2683
▁стати	-2684
▁сторо	-2685
▁схему	-2686
▁табли	-2687
▁тесты	-2688
▁токен	-2689
▁транс	-2690
▁циклы	-2691
▁часто	-2692
▁часть	-2693
▁шагов	-2694
▁шрину	-2695
ception	-2696
cursion	-2697
ference	-2698
indrome	-2699
uctures	-2700
большие	-2701
ватного	-2702
вестный	-2703
вимость	-2704
вляется	-2705
говорим	-2706
грузкой	-2707
дальную	-2708
дование	-2709
дология	-2710
еризует	-2711
зервном	-2712
зициони	-2713
зырьком	-2714
исывать	-2715
кольких	-2716
кращают	-2717
лизацию	-2718
линдром	-2719
ллекция	-2720
лнофунк	-2721
мыкание	-2722
нтирова	-2723
нтифици	-2724
работку	-2725
ражение	-2726
рвоание	-2727
руктуры	-2728
ствуйте	-2729
тельных	-2730
ционная	-2731
▁Border	-2732
▁Branch	-2733
▁Commit	-2734
▁Spread	-2735
▁Truthy	-2736
▁branch	-2737
▁bundle	-2738
▁commit	-2739
▁condit	-2740
▁create	-2741
▁greedy	-2742
▁hexade	-2743
▁inline	-2744
▁integr	-2745
▁linear	-2746
▁linked	-2747
▁margin	-2748
▁module	-2749
▁needed	-2750
▁neural	-2751
▁object	-2752
▁princi	-2753
▁radial	-2754
▁rotate	-2755
▁sorted	-2756
▁spread	-2757
▁static	-2758
▁sticky	-2759
▁submit	-2760
▁truthy	-2761
▁window	-2762
▁Библио	-2763
▁Виртуа	-2764
▁Дерево	-2765
▁Исключ	-2766
▁Модуль	-2767
▁Напиши	-2768
▁Облако	-2769
▁Память	-2770
▁Сессия	-2771
▁Список	-2772
▁адреса	-2773
▁бизнес	-2774
▁близко	-2775
▁брокер	-2776
▁бывает	-2777
▁быстая	-2778
▁версий	-2779
▁версия	-2780
▁вершин	-2781
▁внутри	-2782
▁восьме	-2783
▁вправо	-2784
▁выходя	-2785
▁гибкая	-2786
▁графах	-2787
▁графов	-2788
▁данным	-2789
▁датами	-2790
▁делает	-2791
▁делеги	-2792
▁деплой	-2793
▁дереве	-2794
▁дискри	-2795
▁других	-2796
▁другой	-2797
▁другом	-2798
▁единая	-2799
▁единое	-2800
▁единый	-2801
▁ежедне	-2802
▁задаёт	-2803
▁замены	-2804
▁записи	-2805
▁запись	-2806
▁защищё	-2807
▁избыто	-2808
▁импрот	-2809
▁исполь	-2810
▁каждую	-2811
▁каждый	-2812
▁классу	-2813
▁ключах	-2814
▁ключей	-2815
▁логика	-2816
▁лучшие	-2817
▁лёгкий	-2818
▁манипу	-2819
▁машины	-2820
▁минима	-2821
▁модули	-2822
▁модулй	-2823
▁модуль	-2824
▁мощная	-2825
▁мусора	-2826
▁ничего	-2827
▁облако	-2828
▁обмена	-2829
▁обрабо	-2830
▁объкет	-2831
▁обьект	-2832
▁отдаёт	-2833
▁очердь	-2834
▁ошибка	-2835
▁ошибку	-2836
▁пайтон	-2837
▁пароль	-2838
▁переза	-2839
▁пирами	-2840
▁питоне	-2841
▁плавно	-2842
▁помочь	-2843
▁помощи	-2844
▁помощь	-2845
▁потоке	-2846
▁правый	-2847
▁првиет	-2848
▁прграм	-2849
▁препят	-2850
▁привет	-2851
▁прозра	-2852
▁пустые	-2853
▁растёт	-2854
▁решить	-2855
▁сборке	-2856
▁сборку	-2857
▁связям	-2858
▁свяный	-2859
▁сессия	-2860
▁скрипт	-2861
▁сложно	-2862
▁снимок	-2863
▁соглас	-2864
▁соедин	-2865
▁сравни	-2866
▁строго	-2867
▁строке	-2868
▁схемой	-2869
▁тактам	-2870
▁тексту	-2871
▁удаляя	-2872
▁узлами	-2873
▁учатся	-2874
▁формат	-2875
▁функця	-2876
▁хранят	-2877
▁цветов	-2878
▁шаблон	-2879
▁экрана	-2880
elopment	-2881
formance	-2882
ironment	-2883
negative	-2884
oriented	-2885
positive	-2886
ractices	-2887
батывать	-2888
воряющий	-2889
дователь	-2890
зованное	-2891
ковывает	-2892
работчик	-2893
релочные	-2894
релочных	-2895
ременное	-2896
ременный	-2897
рованный	-2898
ровневый	-2899
ственной	-2900
струкции	-2901
струкция	-2902
тельских	-2903
формацию	-2904
▁Backend	-2905
▁Closure	-2906
▁Cookies	-2907
▁Display	-2908
▁Foreign	-2909
▁Message	-2910
▁MyClass	-2911
▁Nullish	-2912
▁Opacity	-2913
▁Primary	-2914
▁Queries	-2915
▁Webpack	-2916
▁backend	-2917
▁between	-2918
▁breadth	-2919
▁closure	-2920
▁concept	-2921
▁content	-2922
▁convert	-2923
▁cookies	-2924
▁declare	-2925
▁diction	-2926
▁display	-2927
▁doubled	-2928
▁dynamic	-2929
▁express	-2930
▁machine	-2931
▁message	-2932
▁minimum	-2933
▁offline	-2934
▁opacity	-2935
▁padding	-2936
▁regular	-2937
▁sliding	-2938
▁systems	-2939
▁virtual	-2940
▁webpack	-2941
▁website	-2942
▁writing	-2943
▁Индексы	-2944
▁Кластер	-2945
▁Монолит	-2946
▁Очередь	-2947
▁Словарь	-2948
▁События	-2949
▁баланси	-2950
▁батарей	-2951
▁битовые	-2952
▁битовых	-2953
▁быстрое	-2954
▁вдохнов	-2955
▁верхнюю	-2956
▁видимая	-2957
▁вкладки	-2958
▁включая	-2959
▁внешней	-2960
▁внешних	-2961
▁времени	-2962
▁высокоу	-2963
▁гаранти	-2964
▁глубину	-2965
▁готовых	-2966
▁границу	-2967
▁границы	-2968
▁графика	-2969
▁графики	-2970
▁графику	-2971
▁данными	-2972
▁деревья	-2973
▁долгове	-2974
▁доменов	-2975
▁дополни	-2976
▁достато	-2977
▁дробное	-2978
▁импорти	-2979
▁индексы	-2980
▁истории	-2981
▁каждого	-2982
▁кластер	-2983
▁контент	-2984
▁коррект	-2985
▁кортежы	-2986
▁краткий	-2987
▁логикой	-2988
▁машиное	-2989
▁методах	-2990
▁методом	-2991
▁модулях	-2992
▁монолит	-2993
▁находит	-2994
▁находят	-2995
▁нотации	-2996
▁нотация	-2997
▁области	-2998
▁область	-2999
▁обратно	-3000
▁обучене	-3001
▁объекте	-3002
▁операнд	-3003
▁отслежи	-3004
▁пакетов	-3005
▁памятью	-3006
▁плавные	-3007
▁преивет	-3008
▁простая	-3009
▁прривет	-3010
▁работой	-3011
▁размера	-3012
▁разницу	-3013
▁реакция	-3014
▁свойств	-3015
▁связный	-3016
▁связями	-3017
▁сегодня	-3018
▁сервисы	-3019
▁сетевой	-3020
▁сетевые	-3021
▁сложные	-3022
▁сложных	-3023
▁смещает	-3024
▁состоит	-3025
▁списках	-3026
▁списком	-3027
▁строках	-3028
▁таблица	-3029
▁таблице	-3030
▁таблицу	-3031
▁типовых	-3032
▁туннель	-3033
▁удовлет	-3034
▁условию	-3035
▁условия	-3036
▁фоновом	-3037
▁шаблоны	-3038
▁шестнад	-3039
▁шифрует	-3040
factorial	-3041
keyframes	-3042
stringify	-3043
undefined	-3044
веческого	-3045
вращающая	-3046
ифрование	-3047
лительная	-3048
муникации	-3049
ованность	-3050
пертекста	-3051
процессов	-3052
раллелизм	-3053
рхическая	-3054
ственного	-3055
стороннюю	-3056
сторонняя	-3057
▁Bubbling	-3058
▁Callback	-3059
▁Firewall	-3060
▁Frontend	-3061
▁Overflow	-3062
▁Position	-3063
▁Template	-3064
▁absolute	-3065
▁anagrams	-3066
▁balancer	-3067
▁bubbling	-3068
▁callback	-3069
▁chaining	-3070
▁firewall	-3071
▁frontend	-3072
▁keypress	-3073
▁learning	-3074
▁networks	-3075
▁notation	-3076
▁optimize	-3077
▁optional	-3078
▁overflow	-3079
▁pointers	-3080
▁relative	-3081
▁shortest	-3082
▁spanning	-3083
▁template	-3084
▁variable	-3085
▁Алгоритм	-3086
▁Итератор	-3087
▁Машинное	-3088
▁Миграция	-3089
▁Рекурсия	-3090
▁алгортим	-3091
▁алгортма	-3092
▁алгритмы	-3093
▁анимации	-3094
▁аргумент	-3095
▁атомарно	-3096
▁бинарное	-3097
▁взаимоде	-3098
▁внедрить	-3099
▁временем	-3100
▁вызывает	-3101
▁вызывать	-3102
▁географи	-3103
▁двоичную	-3104
▁действия	-3105
▁добавить	-3106
▁добавляя	-3107
▁доменные	-3108
▁доступом	-3109
▁закрытия	-3110
▁запросах	-3111
▁изоляция	-3112
▁итератор	-3113
▁контекст	-3114
▁контента	-3115
▁контроля	-3116
▁короткое	-3117
▁кортежем	-3118
▁линейный	-3119
▁личность	-3120
▁математи	-3121
▁менеджер	-3122
▁миграция	-3123
▁нагрузки	-3124
▁нативное	-3125
▁нейроная	-3126
▁объектно	-3127
▁объектом	-3128
▁объявить	-3129
▁окружние	-3130
▁операций	-3131
▁оптимизи	-3132
▁остовном	-3133
▁отладкой	-3134
▁отменяет	-3135
▁перебора	-3136
▁передачу	-3137
▁передаёт	-3138
▁переходы	-3139
▁подходит	-3140
▁получает	-3141
▁порядком	-3142
▁правилам	-3143
▁практики	-3144
▁принадле	-3145
▁принципы	-3146
▁программ	-3147
▁процесса	-3148
▁работают	-3149
▁реальном	-3150
▁рекурсию	-3151
▁рекурсия	-3152
▁рендерит	-3153
▁решается	-3154
▁связаный	-3155
▁серверам	-3156
▁сервером	-3157
▁системах	-3158
▁слиянием	-3159
▁собирает	-3160
▁событиях	-3161
▁содержит	-3162
▁сожность	-3163
▁страницу	-3164
▁страницы	-3165
▁структры	-3166
▁структур	-3167
▁ускоряют	-3168
▁условные	-3169
▁числовых	-3170
▁элементу	-3171
▁является	-3172
нтификатор	-3173
приложение	-3174
приложения	-3175
разработку	-3176
раллелизме	-3177
рядочивают	-3178
сированную	-3179
цатеричная	-3180
циональные	-3181
циональный	-3182
▁Animation	-3183
▁Exception	-3184
▁Transform	-3185
▁databases	-3186
▁debugging	-3187
▁factorial	-3188
▁functions	-3189
▁implement	-3190
▁mergesort	-3191
▁practices	-3192
▁recursion	-3193
▁substring	-3194
▁technique	-3195
▁transform	-3196
▁translate	-3197
▁undefined	-3198
▁Генератор	-3199
▁Градиенты	-3200
▁Контейнер	-3201
▁Нейронная	-3202
▁Прототипы	-3203
▁Процессор	-3204
▁Сложность	-3205
▁Структуры	-3206
▁анаграммы	-3207
▁анимациях	-3208
▁ассистент	-3209
▁безопасно	-3210
▁библиотек	-3211
▁блокирует	-3212
▁браузером	-3213
▁векторная	-3214
▁вложенным	-3215
▁внедрение	-3216
▁возникает	-3217
▁восстанов	-3218
▁вставлять	-3219
▁встречами	-3220
▁выполнить	-3221
▁выполняют	-3222
▁генератор	-3223
▁градиенты	-3224
▁двумерные	-3225
▁добавляет	-3226
▁добавляют	-3227
▁документа	-3228
▁документы	-3229
▁замыкание	-3230
▁запрещает	-3231
▁запросами	-3232
▁запускает	-3233
▁запускать	-3234
▁значениях	-3235
▁известный	-3236
▁извлекает	-3237
▁изменения	-3238
▁интернете	-3239
▁используя	-3240
▁коллекция	-3241
▁комплекте	-3242
▁концепцию	-3243
▁короткими	-3244
▁множество	-3245
▁множетсво	-3246
▁наложения	-3247
▁написания	-3248
▁научиться	-3249
▁небольшие	-3250
▁нейронные	-3251
▁обновлять	-3252
▁обработки	-3253
▁обтекание	-3254
▁объектная	-3255
▁операторы	-3256
▁операциях	-3257
▁описывает	-3258
▁основного	-3259
▁останавли	-3260
▁отдельная	-3261
▁отдельный	-3262
▁палиндром	-3263
▁первичный	-3264
▁перевести	-3265
▁переводит	-3266
▁переменая	-3267
▁перемнная	-3268
▁плавающих	-3269
▁поговорим	-3270
▁подстроку	-3271
▁позициони	-3272
▁полнофунк	-3273
▁последним	-3274
▁постоянно	-3275
▁применяет	-3276
▁применяют	-3277
▁принимает	-3278
▁программа	-3279
▁программе	-3280
▁простотой	-3281
▁протоколы	-3282
▁прототипы	-3283
▁процессор	-3284
▁прочитать	-3285
▁пузырьком	-3286
▁разбивает	-3287
▁разбивают	-3288
▁разметкой	-3289
▁раскладки	-3290
▁раскладок	-3291
▁реализуют	-3292
▁резервном	-3293
▁результат	-3294
▁рисования	-3295
▁родителям	-3296
▁свойствам	-3297
▁селектору	-3298
▁серверами	-3299
▁серверная	-3300
▁сервисами	-3301
▁синтаксис	-3302
▁скругляет	-3303
▁сложности	-3304
▁создавать	-3305
▁созданный	-3306
▁сообщений	-3307
▁сообщения	-3308
▁сортирует	-3309
▁состояние	-3310
▁состояния	-3311
▁спринтами	-3312
▁сртировка	-3313
▁сртировки	-3314
▁стилизуют	-3315
▁сторонами	-3316
▁структуры	-3317
▁таблицами	-3318
▁табличном	-3319
▁текстовый	-3320
▁типизацию	-3321
▁удалённые	-3322
▁указателя	-3323
▁указывает	-3324
▁умолчанию	-3325
▁уникально	-3326
▁устраняет	-3327
▁элементам	-3328
дравствуйте	-3329
нтифицирует	-3330
ориентирова	-3331
▁Transition	-3332
▁algorithms	-3333
▁bubblesort	-3334
▁coalescing	-3335
▁complexity	-3336
▁difference	-3337
▁exceptions	-3338
▁operations	-3339
▁palindrome	-3340
▁principles	-3341
▁statements	-3342
▁structures	-3343
▁transition	-3344
▁Библиотека	-3345
▁Исключение	-3346
▁Квадратное	-3347
▁Переменная	-3348
▁Стрелочные	-3349
▁Транзакция	-3350
▁асинхронно	-3351
▁безопасную	-3352
▁буферизует	-3353
▁виртуалное	-3354
▁выходящего	-3355
▁вычислений	-3356
▁записывать	-3357
▁заставляет	-3358
▁защищённая	-3359
▁изменяемая	-3360
▁инструкции	-3361
▁интеллекта	-3362
▁информации	-3363
▁информацию	-3364
▁исключение	-3365
▁исключения	-3366
▁использует	-3367
▁итерациями	-3368
▁квадратное	-3369
▁компьютеры	-3370
▁координаты	-3371
▁кратчайший	-3372
▁множеством	-3373
▁надёжности	-3374
▁надёжность	-3375
▁нескольких	-3376
▁обработать	-3377
▁обработчик	-3378
▁обращается	-3379
▁обтеканием	-3380
▁организуют	-3381
▁переменные	-3382
▁переменным	-3383
▁показывает	-3384
▁постоянная	-3385
▁превращает	-3386
▁прекращают	-3387
▁приватного	-3388
▁приведения	-3389
▁прошедшими	-3390
▁работающее	-3391
▁работающих	-3392
▁равномерно	-3393
▁результате	-3394
▁скользящем	-3395
▁соединения	-3396
▁сортировку	-3397
▁сравнивает	-3398
▁стрелочных	-3399
▁транзакций	-3400
▁транзакция	-3401
▁уникальные	-3402
▁уникальный	-3403
▁уязвимость	-3404
▁физическом	-3405
▁элементами	-3406
станавливать	-3407
▁conditional	-3408
▁development	-3409
▁environment	-3410
▁expressions	-3411
▁hexadecimal	-3412
▁integration	-3413
▁performance	-3414
▁Авторизация	-3415
▁Аутентифика	-3416
▁Конструкция	-3417
▁Параллелизм	-3418
▁авторизация	-3419
▁асинхронным	-3420
▁атомарность	-3421
▁аутентифика	-3422
▁батарейками	-3423
▁виртуальные	-3424
▁виртуальный	-3425
▁вредоносный	-3426
▁гарантирует	-3427
▁гипертекста	-3428
▁динамичское	-3429
▁документная	-3430
▁достаточном	-3431
▁ежедневными	-3432
▁интерфейсов	-3433
▁копировании	-3434
▁кэшировании	-3435
▁манипуляции	-3436
▁методология	-3437
▁минимальном	-3438
▁независимая	-3439
▁независимые	-3440
▁оперативная	-3441
▁оперативной	-3442
▁описываемая	-3443
▁отображение	-3444
▁перегрузкой	-3445
▁позволяющая	-3446
▁приведением	-3447
▁привязывает	-3448
▁приложениям	-3449
▁реализовать	-3450
▁реляционная	-3451
▁реляционным	-3452
▁сворачивает	-3453
▁собственной	-3454
▁современный	-3455
▁статическую	-3456
▁упаковывает	-3457
▁шифрованием	-3458
довательность	-3459
▁dictionaries	-3460
▁Микросервисы	-3461
▁Нормализация	-3462
▁Псевдоклассы	-3463
▁Тестирование	-3464
▁балансировка	-3465
▁безопасности	-3466
▁восьмеричную	-3467
▁двустороннюю	-3468
▁дискриминант	-3469
▁избыточность	-3470
▁изолированно	-3471
▁используемые	-3472
▁коммуникации	-3473
▁компьютерами	-3474
▁корректность	-3475
▁микросервисы	-3476
▁наследование	-3477
▁нормализация	-3478
▁обрабатывать	-3479
▁операционная	-3480
▁отслеживания	-3481
▁параллелизме	-3482
▁передаваемая	-3483
▁перезагрузки	-3484
▁пользователю	-3485
▁пользоваться	-3486
▁превращающая	-3487
▁препятствует	-3488
▁прозрачность	-3489
▁тестирование	-3490
▁тестировании	-3491
▁Виртуализация	-3492
▁автоматически	-3493
▁вдохновлённая	-3494
▁виртуализацию	-3495
▁выполняющаяся	-3496
▁выполняющихся	-3497
▁делегирования	-3498
▁долговечность	-3499
▁зашифрованный	-3500
▁идентификатор	-3501
▁иерархическая	-3502
▁изолированная	-3503
▁импортировать	-3504
▁нежелательное	-3505
▁нежелательный	-3506
▁одновременное	-3507
▁односторонняя	-3508
▁останавливает	-3509
▁пирамидальную	-3510
▁пользователям	-3511
▁предоставляет	-3512
▁прогрессивное	-3513
▁прогрессивный	-3514
▁разворачивает	-3515
▁трансформации	-3516
▁упорядочивают	-3517
▁фиксированную	-3518
▁человеческого	-3519
▁Аутентификация	-3520
▁Псевдоэлементы	-3521
▁автоматизирует	-3522
▁аутентификацию	-3523
▁взаимодействия	-3524
▁восстановления	-3525
▁вычислительная	-3526
▁географические	-3527
▁дополнительных	-3528
▁идентифицирует	-3529
▁искусственного	-3530
▁математические	-3531
▁микрофреймворк	-3532
▁оптимизировать	-3533
▁организованное	-3534
▁принадлежность	-3535
▁функциональные	-3536
ориентированного	-3537
▁высокоуровневый	-3538
▁прграммирование	-3539
▁согласованность	-3540
▁удовлетворяющий	-3541
=>	-3542
Fi	-3543
HT	-3544
Pr	-3545
ST	-3546
Sp	-3547
be	-3548
ca	-3549
cu	-3550
eu	-3551
ev	-3552
lc	-3553
ng	-3554
nv	-3555
oa	-3556
oe	-3557
oo	-3558
qu	-3559
rd	-3560
rv	-3561
wr	-3562
xt	-3563
yn	-3564
Ау	-3565
Гр	-3566
Ис	-3567
Ко	-3568
Пе	-3569
Ра	-3570
Со	-3571
аё	-3572
гд	-3573
зд	-3574
иг	-3575
йс	-3576
йт	-3577
лн	-3578
ом	-3579
ощ	-3580
тв	-3581
юч	-3582
яр	-3583
For	-3584
Git	-3585
Let	-3586
Lis	-3587
Nul	-3588
arc	-3589
arn	-3590
ata	-3591
bin	-3592
bre	-3593
cla	-3594
dat	-3595
era	-3596
erf	-3597
eri	-3598
fle	-3599
JA	-3600
PW	-3601
iu	-3602
xa	-3603
yf	-3604
бщ	-3605
бя	-3606
дв	-3607
еа	-3608
зг	-3609
зь	-3610
йл	-3611
ня	-3612
оа	-3613
рж	-3614
рр	-3615
сд	-3616
см	-3617
ср	-3618
сх	-3619
тр	-3620
тэ	-3621
тё	-3622
уд	-3623
eat	-3624
hem	-3625
hle	-3626
hor	-3627
inl	-3628
ins	-3629
isN	-3630
itM	-3631
itw	-3632
ize	-3633
lea	-3634
lec	-3635
lis	-3636
man	-3637
min	-3638
mpl	-3639
nch	-3640
nge	-3641
nim	-3642
odu	-3643
ona	-3644
ong	-3645
onv	-3646
orE	-3647
ord	-3648
pat	-3649
per	-3650
pli	-3651
rin	-3652
ris	-3653
sor	-3654
sta	-3655
tat	-3656
uce	-3657
uer	-3658
win	-3659
wis	-3660
wit	-3661
xit	-3662
Веб	-3663
Ква	-3664
При	-3665
Сет	-3666
Сло	-3667
ако	-3668
ала	-3669
аль	-3670
аля	-3671
ана	-3672
ани	-3673
аны	-3674
аск	-3675
асл	-3676
асн	-3677
аст	-3678
ати	-3679
ато	-3680
аяс	-3681
бка	-3682
бко	-3683
бое	-3684
бот	-3685
бра	-3686
бте	-3687
бък	-3688
вае	-3689
вай	-3690
вам	-3691
ваю	-3692
вор	-3693
гри	-3694
дан	-3695
дач	-3696
доэ	-3697
дра	-3698
дро	-3699
Br	-3700
Cl	-3701
He	-3702
SO	-3703
Te	-3704
am	-3705
bj	-3706
dt	-3707
gr	-3708
rn	-3709
sk	-3710
tc	-3711
Ге	-3712
Тр	-3713
ал	-3714
бс	-3715
бт	-3716
бь	-3717
гк	-3718
ею	-3719
кд	-3720
кн	-3721
лс	-3722
оо	-3723
пр	-3724
пц	-3725
пя	-3726
рд	-3727
рн	-3728
сф	-3729
тд	-3730
тм	-3731
тс	-3732
тч	-3733
фа	-3734
чш	-3735
ыт	-3736
яд	-3737
ян	-3738
яц	-3739
ёг	-3740
▁Q	-3741
▁л	-3742
ere	-3743
ien	-3744
mer	-3745
oes	-3746
Ней	-3747
Сте	-3748
даё	-3749
дст	-3750
дят	-3751
ебе	-3752
ебо	-3753
ево	-3754
ела	-3755
ели	-3756
еля	-3757
ема	-3758
еме	-3759
емы	-3760
ено	-3761
ерд	-3762
еро	-3763
ете	-3764
ети	-3765
етк	-3766
жер	-3767
жны	-3768
зав	-3769
заг	-3770
зам	-3771
зап	-3772
зас	-3773
зач	-3774
заш	-3775
защ	-3776
зни	-3777
зны	-3778
иво	-3779
иза	-3780
ика	-3781
ико	-3782
ины	-3783
ири	-3784
иро	-3785
исл	-3786
ито	-3787
ить	-3788
йка	-3789
йны	-3790
каз	-3791
как	-3792
кал	-3793
кам	-3794
кац	-3795
ков	-3796
ког	-3797
код	-3798
кол	-3799
An	-3800
CI	-3801
Da	-3802
LI	-3803
RE	-3804
RM	-3805
UI	-3806
da	-3807
eI	-3808
ke	-3809
nm	-3810
pP	-3811
pe	-3812
tL	-3813
vi	-3814
ОС	-3815
Пр	-3816
Че	-3817
ае	-3818
ар	-3819
бе	-3820
дх	-3821
еи	-3822
ел	-3823
ое	-3824
ос	-3825
сн	-3826
хи	-3827
ъя	-3828
ыш	-3829
had	-3830
ini	-3831
nes	-3832
stg	-3833
tch	-3834
ата	-3835
вна	-3836
гля	-3837
ека	-3838
ена	-3839
зко	-3840
ира	-3841
кон	-3842
кси	-3843
кта	-3844
кци	-3845
лев	-3846
лед	-3847
леж	-3848
лет	-3849
лин	-3850
лио	-3851
лич	-3852
лни	-3853
лог	-3854
лок	-3855
лца	-3856
льс	-3857
льш	-3858
ляр	-3859
лят	-3860
ляц	-3861
ляю	-3862
мат	-3863
меж	-3864
мею	-3865
мир	-3866
мно	-3867
наб	-3868
нав	-3869
нал	-3870
нас	-3871
нат	-3872
нау	-3873
нач	-3874
нер	-3875
нза	-3876
нив	-3877
ний	-3878
ник	-3879
нил	-3880
ним	-3881
нип	-3882
нит	-3883
ниц	-3884
ног	-3885
нож	-3886
нор	-3887
ноф	-3888
нст	-3889
ова	-3890
око	-3891
оло	-3892
она	-3893
оны	-3894
ота	-3895
оте	-3896
пас	-3897
пре	-3898
пти	-3899
=.	-3900
Ag	-3901
De	-3902
JS	-3903
No	-3904
Py	-3905
Th	-3906
Tr	-3907
ai	-3908
ip	-3909
ls	-3910
mb	-3911
rk	-3912
rl	-3913
su	-3914
tM	-3915
xi	-3916
По	-3917
бр	-3918
вт	-3919
ещ	-3920
жд	-3921
зб	-3922
зв	-3923
зк	-3924
мв	-3925
нз	-3926
нк	-3927
ню	-3928
оэ	-3929
уе	-3930
уп	-3931
ьк	-3932
ющ	-3933
QLA	-3934
bit	-3935
ele	-3936
hon	-3937
ipt	-3938
ner	-3939
str	-3940
ten	-3941
бме	-3942
бро	-3943
дно	-3944
дхо	-3945
ель	-3946
етв	-3947
ето	-3948
жно	-3949
иск	-3950
кор	-3951
лир	-3952
пци	-3953
раб	-3954
рад	-3955
рак	-3956
рам	-3957
рар	-3958
рас	-3959
рац	-3960
рво	-3961
реб	-3962
рев	-3963
рег	-3964
ред	-3965
рез	-3966
реи	-3967
рек	-3968
рел	-3969
рем	-3970
рео	-3971
реп	-3972
реш	-3973
риз	-3974
рил	-3975
рис	-3976
риш	-3977
рна	-3978
рно	-3979
рны	-3980
рог	-3981
роз	-3982
рон	-3983
роф	-3984
рош	-3985
рощ	-3986
рре	-3987
рри	-3988
рте	-3989
рёб	-3990
сер	-3991
сис	-3992
ско	-3993
сны	-3994
сор	-3995
стр	-3996
сты	-3997
таб	-3998
тав	-3999
AN	-4000
Ge	-4001
OA	-4002
Re	-4003
TT	-4004
Wo	-4005
ba	-4006
de	-4007
ei	-4008
fe	-4009
gn	-4010
io	-4011
nS	-4012
nn	-4013
ob	-4014
rm	-4015
sN	-4016
sa	-4017
so	-4018
te	-4019
to	-4020
ug	-4021
Ре	-4022
аи	-4023
ех	-4024
нс	-4025
рв	-4026
тл	-4027
щн	-4028
ьш	-4029
яв	-4030
ям	-4031
яю	-4032
ёл	-4033
ён	-4034
Fle	-4035
Mon	-4036
Wor	-4037
cle	-4038
fin	-4039
ial	-4040
men	-4041
onc	-4042
rea	-4043
tin	-4044
ате	-4045
вух	-4046
жад	-4047
кте	-4048
лов	-4049
мещ	-4050
очу	-4051
рае	-4052
рок	-4053
сво	-4054
тае	-4055
тан	-4056
тар	-4057
тая	-4058
тво	-4059
тда	-4060
теж	-4061
тей	-4062
тел	-4063
тем	-4064
тес	-4065
тиз	-4066
тик	-4067
тил	-4068
тим	-4069
тип	-4070
тир	-4071
тич	-4072
тия	-4073
тод	-4074
тои	-4075
тот	-4076
точ	-4077
тоя	-4078
тро	-4079
уби	-4080
ует	-4081
ука	-4082
уле	-4083
уль	-4084
ури	-4085
уро	-4086
уст	-4087
уфе	-4088
уча	-4089
фей	-4090
фич	-4091
фре	-4092
фро	-4093
цве	-4094
цес	-4095
цик	-4096
цип	-4097
чно	-4098
шне	-4099
Gi	-4100
IF	-4101
Ja	-4102
SR	-4103
Sy	-4104
Vu	-4105
ac	-4106
co	-4107
he	-4108
li	-4109
ni	-4110
nt	-4111
nu	-4112
uc	-4113
{'	-4114
Де	-4115
Кв	-4116
Ма	-4117
Не	-4118
Но	-4119
ав	-4120
вп	-4121
вр	-4122
гл	-4123
ев	-4124
ед	-4125
еж	-4126
ез	-4127
йм	-4128
оп	-4129
уг	-4130
уж	-4131
цв	-4132
ък	-4133
ыс	-4134
ьс	-4135
Dat	-4136
Flo	-4137
hin	-4138
inc	-4139
lit	-4140
orm	-4141
son	-4142
umb	-4143
Что	-4144
ида	-4145
исо	-4146
ита	-4147
лег	-4148
нна	-4149
нуж	-4150
нюю	-4151
оля	-4152
рен	-4153
тре	-4154
уда	-4155
шни	-4156
щем	-4157
щих	-4158
ыка	-4159
ыра	-4160
ыст	-4161
ыто	-4162
ьна	-4163
ьны	-4164
ьта	-4165
это	-4166
яны	-4167
яти	-4168
▁..	-4169
▁AJ	-4170
▁AN	-4171
▁As	-4172
▁Do	-4173
▁JW	-4174
▁PW	-4175
▁Pr	-4176
▁Ty	-4177
▁ab	-4178
▁ad	-4179
▁al	-4180
▁ba	-4181
▁br	-4182
▁le	-4183
▁nu	-4184
▁se	-4185
▁su	-4186
▁sy	-4187
▁ty	-4188
▁Кл	-4189
▁Кэ	-4190
▁Че	-4191
▁ал	-4192
▁бл	-4193
▁бу	-4194
▁вз	-4195
▁ви	-4196
▁вл	-4197
▁вн	-4198
▁вр	-4199
??	-4200
AJ	-4201
SQ	-4202
TC	-4203
We	-4204
bS	-4205
bi	-4206
fi	-4207
iv	-4208
la	-4209
lt	-4210
lv	-4211
nj	-4212
nk	-4213
rc	-4214
rs	-4215
sp	-4216
ti	-4217
ts	-4218
xp	-4219
yS	-4220
{"	-4221
Об	-4222
Оч	-4223
ац	-4224
гр	-4225
дс	-4226
жн	-4227
йк	-4228
лц	-4229
ои	-4230
ой	-4231
сс	-4232
ут	-4233
▁E	-4234
Dis	-4235
[..	-4236
ati	-4237
cit	-4238
ker	-4239
mat	-4240
onS	-4241
rel	-4242
ubb	-4243
вки	-4244
дри	-4245
есп	-4246
име	-4247
ими	-4248
йто	-4249
кат	-4250
кро	-4251
мас	-4252
мой	-4253
неж	-4254
нто	-4255
рие	-4256
сай	-4257
сло	-4258
тст	-4259
цир	-4260
чна	-4261
эка	-4262
▁fe	-4263
▁so	-4264
▁ге	-4265
▁дв	-4266
▁дл	-4267
▁ие	-4268
▁кэ	-4269
▁мн	-4270
▁му	-4271
▁ош	-4272
▁пе	-4273
▁сб	-4274
▁св	-4275
▁си	-4276
▁сл	-4277
▁сп	-4278
▁ср	-4279
▁то	-4280
▁хэ	-4281
▁эк	-4282
▁эл	-4283
Clas	-4284
Quer	-4285
alSt	-4286
ales	-4287
arch	-4288
city	-4289
ctor	-4290
dius	-4291
eded	-4292
entD	-4293
etwe	-4294
fram	-4295
gile	-4296
hile	-4297
icks	-4298
inin	-4299
''	-4300
DO	-4301
Ev	-4302
VP	-4303
aS	-4304
fy	-4305
ga	-4306
hi	-4307
ie	-4308
ix	-4309
ll	-4310
rt	-4311
ua	-4312
wh	-4313
wi	-4314
yo	-4315
Ка	-4316
Сл	-4317
ан	-4318
ау	-4319
иш	-4320
йр	-4321
кв	-4322
мм	-4323
ож	-4324
ол	-4325
оу	-4326
пп	-4327
сь	-4328
уб	-4329
ук	-4330
фу	-4331
хр	-4332
ъе	-4333
эт	-4334
Bor	-4335
eyp	-4336
que	-4337
ror	-4338
Гра	-4339
Ите	-4340
Тра	-4341
вст	-4342
дат	-4343
дле	-4344
дны	-4345
дца	-4346
ерс	-4347
нах	-4348
тиф	-4349
тно	-4350
тра	-4351
хро	-4352
щна	-4353
ько	-4354
▁TC	-4355
▁ar	-4356
▁fu	-4357
▁ил	-4358
eact	-4359
fact	-4360
grap	-4361
iple	-4362
itin	-4363
keyf	-4364
kies	-4365
mple	-4366
ngul	-4367
odel	-4368
oing	-4369
once	-4370
port	-4371
ript	-4372
rite	-4373
sfor	-4374
shad	-4375
sure	-4376
tend	-4377
tion	-4378
tual	-4379
ular	-4380
uple	-4381
wall	-4382
Дере	-4383
Пере	-4384
айлы	-4385
анны	-4386
асну	-4387
ассу	-4388
ассы	-4389
асте	-4390
асти	-4391
асто	-4392
бива	-4393
блон	-4394
бота	-4395
бото	-4396
вани	-4397
вате	-4398
вная	-4399
Ca	-4400
Dj	-4401
Fl	-4402
av	-4403
hm	-4404
ja	-4405
ns	-4406
os	-4407
ov	-4408
ry	-4409
ta	-4410
xe	-4411
Ал	-4412
Кэ	-4413
Ст	-4414
Те	-4415
ап	-4416
аш	-4417
бк	-4418
вз	-4419
вс	-4420
ге	-4421
иб	-4422
ий	-4423
ип	-4424
лл	-4425
од	-4426
рф	-4427
уа	-4428
чё	-4429
ыр	-4430
яе	-4431
▁р	-4432
Mer	-4433
inj	-4434
ite	-4435
lin	-4436
ora	-4437
peo	-4438
rat	-4439
ron	-4440
tor	-4441
Соб	-4442
вар	-4443
ина	-4444
наг	-4445
пле	-4446
рин	-4447
руж	-4448
тац	-4449
тде	-4450
тко	-4451
тна	-4452
уме	-4453
яще	-4454
▁VP	-4455
▁пл	-4456
▁уд	-4457
atic	-4458
hort	-4459
вный	-4460
воля	-4461
вора	-4462
ворк	-4463
годн	-4464
гори	-4465
град	-4466
граф	-4467
даля	-4468
дать	-4469
двиг	-4470
джер	-4471
дима	-4472
дины	-4473
довл	-4474
дрес	-4475
дуле	-4476
дуль	-4477
екте	-4478
енны	-4479
ерам	-4480
еран	-4481
ерар	-4482
ерве	-4483
ереб	-4484
ерев	-4485
ерем	-4486
ерех	-4487
ерна	-4488
еров	-4489
ессо	-4490
етво	-4491
етки	-4492
етко	-4493
жени	-4494
зада	-4495
заме	-4496
заны	-4497
зате	-4498
заци	-4499
))	-4500
CO	-4501
Ea	-4502
Ty	-4503
Wh	-4504
XS	-4505
bG	-4506
bb	-4507
fr	-4508
no	-4509
tD	-4510
xb	-4511
Ба	-4512
ад	-4513
ач	-4514
аю	-4515
бу	-4516
вд	-4517
ег	-4518
её	-4519
зр	-4520
им	-4521
ио	-4522
их	-4523
иц	-4524
ищ	-4525
он	-4526
са	-4527
сл	-4528
тк	-4529
хв	-4530
хе	-4531
хэ	-4532
шн	-4533
▁(	-4534
ceo	-4535
cin	-4536
din	-4537
mbo	-4538
ond	-4539
ons	-4540
tal	-4541
Сес	-4542
ара	-4543
асо	-4544
вка	-4545
дал	-4546
дре	-4547
зер	-4548
иет	-4549
ини	-4550
лон	-4551
льк	-4552
нич	-4553
ово	-4554
оме	-4555
руз	-4556
час	-4557
шри	-4558
юте	-4559
▁Sp	-4560
▁np	-4561
chem	-4562
ined	-4563
вере	-4564
дите	-4565
зере	-4566
зкой	-4567
змен	-4568
зыва	-4569
иная	-4570
иров	-4571
иска	-4572
иско	-4573
исли	-4574
кажд	-4575
каль	-4576
кани	-4577
кать	-4578
каци	-4579
киру	-4580
кода	-4581
коро	-4582
кото	-4583
крос	-4584
кция	-4585
ласо	-4586
лгов	-4587
лека	-4588
лели	-4589
лива	-4590
лиза	-4591
лизу	-4592
лиро	-4593
лите	-4594
лови	-4595
льзо	-4596
льна	-4597
льно	-4598
льны	-4599
As	-4600
Ba	-4601
Bo	-4602
Bu	-4603
Co	-4604
Di	-4605
Do	-4606
Fr	-4607
GP	-4608
Gr	-4609
Na	-4610
PS	-4611
Po	-4612
RS	-4613
ee	-4614
ep	-4615
gi	-4616
lb	-4617
mi	-4618
tA	-4619
tg	-4620
wa	-4621
xc	-4622
{}	-4623
Ит	-4624
Мн	-4625
дц	-4626
еь	-4627
жы	-4628
оф	-4629
ох	-4630
оя	-4631
тн	-4632
уй	-4633
ух	-4634
шр	-4635
эл	-4636
Mat	-4637
ask	-4638
ndo	-4639
rom	-4640
али	-4641
бъе	-4642
ерж	-4643
ест	-4644
лиц	-4645
льн	-4646
рои	-4647
рол	-4648
роц	-4649
рси	-4650
уть	-4651
хра	-4652
чер	-4653
▁FI	-4654
▁bl	-4655
Auth	-4656
асть	-4657
грит	-4658
ерте	-4659
етов	-4660
золи	-4661
льши	-4662
ляци	-4663
мене	-4664
мери	-4665
мида	-4666
миро	-4667
мост	-4668
мощи	-4669
мпле	-4670
мяти	-4671
нало	-4672
нати	-4673
нени	-4674
нера	-4675
нете	-4676
ниро	-4677
ните	-4678
ниче	-4679
нных	-4680
ново	-4681
ноли	-4682
номе	-4683
нота	-4684
нста	-4685
нтей	-4686
нтел	-4687
ными	-4688
омен	-4689
онны	-4690
отек	-4691
пако	-4692
писо	-4693
поль	-4694
порт	-4695
раво	-4696
рана	-4697
раня	-4698
раст	-4699
AI	-4700
JW	-4701
LA	-4702
Le	-4703
Ma	-4704
My	-4705
OI	-4706
Op	-4707
RA	-4708
Ra	-4709
Un	-4710
ag	-4711
dl	-4712
dy	-4713
eS	-4714
hn	-4715
ld	-4716
lp	-4717
lu	-4718
mo	-4719
mu	-4720
nl	-4721
oD	-4722
oi	-4723
ps	-4724
rE	-4725
rf	-4726
rg	-4727
ru	-4728
ty	-4729
up	-4730
we	-4731
БД	-4732
аб	-4733
бн	-4734
ия	-4735
ул	-4736
уя	-4737
ык	-4738
ящ	-4739
▁&	-4740
▁j	-4741
▁ж	-4742
aSc	-4743
als	-4744
bal	-4745
bor	-4746
dle	-4747
gor	-4748
iti	-4749
oat	-4750
red	-4751
ted	-4752
зме	-4753
нол	-4754
оли	-4755
ото	-4756
уни	-4757
▁SO	-4758
▁tw	-4759
▁см	-4760
alin	-4761
chin	-4762
бкой	-4763
ваты	-4764
енты	-4765
еску	-4766
каза	-4767
масс	-4768
нили	-4769
ннюю	-4770
рати	-4771
рато	-4772
ратч	-4773
рафи	-4774
раци	-4775
раща	-4776
реза	-4777
рейм	-4778
рело	-4779
реля	-4780
рени	-4781
рива	-4782
риза	-4783
рило	-4784
риме	-4785
рими	-4786
рина	-4787
рини	-4788
рого	-4789
рока	-4790
роки	-4791
роли	-4792
роля	-4793
рона	-4794
рото	-4795
руги	-4796
руго	-4797
рукт	-4798
рыти	-4799
FI	-4800
Ov	-4801
TM	-4802
au	-4803
br	-4804
dr	-4805
eF	-4806
hl	-4807
np	-4808
tr	-4809
ud	-4810
ys	-4811
Би	-4812
Да	-4813
Ин	-4814
Кл	-4815
Па	-4816
Пс	-4817
Се	-4818
Хе	-4819
аф	-4820
бм	-4821
дк	-4822
нц	-4823
оц	-4824
рм	-4825
св	-4826
фе	-4827
▁.	-4828
Cle	-4829
TPS	-4830
cky	-4831
dis	-4832
hen	-4833
omp	-4834
stA	-4835
аси	-4836
дей	-4837
екс	-4838
ерш	-4839
зах	-4840
ици	-4841
льз	-4842
мич	-4843
оль	-4844
рау	-4845
ращ	-4846
реа	-4847
рое	-4848
сно	-4849
чны	-4850
ыва	-4851
▁сн	-4852
Expl	-4853
blem	-4854
inst	-4855
vice	-4856
асно	-4857
гото	-4858
дени	-4859
ловы	-4860
льта	-4861
онте	-4862
рисо	-4863
ское	-4864
скус	-4865
слеж	-4866
снов	-4867
соко	-4868
стан	-4869
ства	-4870
стна	-4871
стны	-4872
стов	-4873
стои	-4874
стре	-4875
стро	-4876
табл	-4877
тает	-4878
тако	-4879
тана	-4880
тано	-4881
таре	-4882
тате	-4883
тато	-4884
тема	-4885
тени	-4886
тери	-4887
тест	-4888
типо	-4889
тиро	-4890
тиру	-4891
ткое	-4892
тмен	-4893
тово	-4894
тода	-4895
тора	-4896
тори	-4897
тоти	-4898
тото	-4899
Fo	-4900
Me	-4901
ha	-4902
sq	-4903
ui	-4904
Сп	-4905
сё	-4906
фо	-4907
фр	-4908
Bra	-4909
ire	-4910
oct	-4911
reg	-4912
res	-4913
ret	-4914
ven	-4915
Мне	-4916
аго	-4917
аки	-4918
ать	-4919
вне	-4920
гой	-4921
гом	-4922
гор	-4923
его	-4924
жет	-4925
иру	-4926
иса	-4927
мма	-4928
мпь	-4929
нев	-4930
нес	-4931
неш	-4932
нир	-4933
ого	-4934
оть	-4935
рач	-4936
рещ	-4937
рип	-4938
руг	-4939
руп	-4940
тру	-4941
тьс	-4942
уго	-4943
фру	-4944
ять	-4945
▁He	-4946
▁Py	-4947
▁Sy	-4948
▁fl	-4949
▁fr	-4950
▁wa	-4951
▁фу	-4952
reat	-4953
води	-4954
дяще	-4955
итов	-4956
лени	-4957
лиру	-4958
людя	-4959
мает	-4960
мате	-4961
маци	-4962
пуля	-4963
стру	-4964
умен	-4965
унне	-4966
усто	-4967
фику	-4968
ципы	-4969
циру	-4970
чами	-4971
чани	-4972
чере	-4973
числ	-4974
чная	-4975
чную	-4976
шать	-4977
шени	-4978
шней	-4979
щени	-4980
язви	-4981
янно	-4982
ясни	-4983
ённы	-4984
▁Bra	-4985
▁Dat	-4986
▁Fal	-4987
▁Mer	-4988
▁Nod	-4989
▁Nul	-4990
▁Pri	-4991
▁Rab	-4992
▁SOL	-4993
▁Tel	-4994
▁[..	-4995
▁bal	-4996
▁bes	-4997
▁cal	-4998
▁cod	-4999
Ав	-5000
На	-5001
Чт	-5002
аж	-5003
зм	-5004
ып	-5005
▁|	-5006
Cal	-5007
How	-5008
ari	-5009
ars	-5010
dow	-5011
ert	-5012
gri	-5013
lar	-5014
lem	-5015
mar	-5016
par	-5017
rev	-5018
var	-5019
бст	-5020
гки	-5021
дки	-5022
зки	-5023
ква	-5024
кие	-5025
кто	-5026
нне	-5027
тма	-5028
ход	-5029
щаю	-5030
▁SQ	-5031
▁SS	-5032
▁SV	-5033
▁Sc	-5034
▁We	-5035
▁Wh	-5036
▁ma	-5037
▁mo	-5038
▁Ге	-5039
▁Ис	-5040
▁Ка	-5041
▁кд	-5042
▁кл	-5043
▁ум	-5044
▁уя	-5045
▁фи	-5046
cker	-5047
вует	-5048
екур	-5049
здаю	-5050
игра	-5051
иски	-5052
лине	-5053
локи	-5054
льки	-5055
небо	-5056
неза	-5057
нива	-5058
огра	-5059
тики	-5060
чный	-5061
▁Wor	-5062
▁dou	-5063
▁fet	-5064
▁fin	-5065
▁fle	-5066
▁int	-5067
▁lis	-5068
▁mat	-5069
▁mer	-5070
▁min	-5071
▁oct	-5072
▁pat	-5073
▁que	-5074
▁ret	-5075
▁ses	-5076
▁sor	-5077
▁sti	-5078
▁tem	-5079
▁tra	-5080
▁tre	-5081
▁wit	-5082
▁wor	-5083
▁Иск	-5084
▁Ква	-5085
▁Объ	-5086
▁При	-5087
▁ата	-5088
▁бли	-5089
▁вза	-5090
▁вир	-5091
▁вле	-5092
▁вло	-5093
▁выш	-5094
▁глу	-5095
▁дей	-5096
▁дер	-5097
▁доб	-5098
▁дос	-5099
[.	-5100
ki	-5101
oc	-5102
ыч	-5103
▁k	-5104
Fal	-5105
alS	-5106
ala	-5107
alu	-5108
bst	-5109
cal	-5110
ces	-5111
ink	-5112
mal	-5113
pen	-5114
rad	-5115
ral	-5116
ses	-5117
бъя	-5118
мпо	-5119
ока	-5120
опо	-5121
пов	-5122
пор	-5123
раф	-5124
рах	-5125
сст	-5126
упо	-5127
ыпо	-5128
ьек	-5129
эле	-5130
▁be	-5131
▁bo	-5132
▁en	-5133
▁ps	-5134
▁we	-5135
▁ав	-5136
▁ар	-5137
▁ау	-5138
▁вд	-5139
▁че	-5140
eren	-5141
esor	-5142
ionS	-5143
onal	-5144
асин	-5145
ерви	-5146
ключ	-5147
лизм	-5148
реме	-5149
стви	-5150
цыкл	-5151
шими	-5152
щаяс	-5153
▁abo	-5154
▁bre	-5155
▁fal	-5156
▁par	-5157
▁tal	-5158
▁win	-5159
▁дро	-5160
▁ест	-5161
▁зак	-5162
▁зам	-5163
▁зас	-5164
▁зач	-5165
▁заш	-5166
▁защ	-5167
▁име	-5168
▁инд	-5169
▁ите	-5170
▁ква	-5171
▁кде	-5172
▁ког	-5173
▁код	-5174
▁кол	-5175
▁коо	-5176
▁коп	-5177
▁кра	-5178
▁кро	-5179
▁мас	-5180
▁меж	-5181
▁мод	-5182
▁наг	-5183
▁над	-5184
▁най	-5185
▁нап	-5186
▁нас	-5187
▁нау	-5188
▁нах	-5189
▁неж	-5190
▁нор	-5191
▁оди	-5192
▁отс	-5193
▁оши	-5194
▁пак	-5195
▁пар	-5196
▁пер	-5197
▁поб	-5198
▁пог	-5199
ew	-5200
вн	-5201
ии	-5202
мн	-5203
пь	-5204
ур	-5205
Hel	-5206
Tel	-5207
Tra	-5208
del	-5209
elo	-5210
els	-5211
enc	-5212
ept	-5213
hel	-5214
pti	-5215
rac	-5216
ram	-5217
udo	-5218
use	-5219
бку	-5220
вку	-5221
дие	-5222
еск	-5223
ику	-5224
клю	-5225
миз	-5226
оку	-5227
ску	-5228
тат	-5229
тку	-5230
тмы	-5231
▁Th	-5232
▁el	-5233
▁ra	-5234
▁wr	-5235
▁ид	-5236
▁уч	-5237
iter	-5238
sion	-5239
вдоэ	-5240
вила	-5241
гани	-5242
ерку	-5243
еска	-5244
еско	-5245
ирту	-5246
като	-5247
лове	-5248
мали	-5249
нтек	-5250
реща	-5251
▁Hel	-5252
▁bui	-5253
▁pra	-5254
▁инф	-5255
▁обе	-5256
▁обл	-5257
▁обь	-5258
▁поз	-5259
▁пои	-5260
▁пол	-5261
▁пом	-5262
▁раб	-5263
▁рав	-5264
▁рас	-5265
▁рег	-5266
▁рез	-5267
▁рек	-5268
▁рен	-5269
▁рес	-5270
▁сер	-5271
▁сес	-5272
▁сеь	-5273
▁сис	-5274
▁ско	-5275
▁сли	-5276
▁сло	-5277
▁сог	-5278
▁сое	-5279
▁сож	-5280
▁соз	-5281
▁соо	-5282
▁сор	-5283
▁сос	-5284
▁сра	-5285
▁сре	-5286
▁ста	-5287
▁сте	-5288
▁сто	-5289
▁схе	-5290
▁таб	-5291
▁тво	-5292
▁тек	-5293
▁уни	-5294
▁ура	-5295
▁фре	-5296
▁фун	-5297
▁цик	-5298
▁чис	-5299
TL	-5300
kM	-5301
ош	-5302
AID	-5303
akM	-5304
dth	-5305
ery	-5306
ina	-5307
irt	-5308
nce	-5309
oin	-5310
por	-5311
thy	-5312
unc	-5313
xce	-5314
аши	-5315
бла	-5316
год	-5317
евы	-5318
езо	-5319
жни	-5320
ино	-5321
иши	-5322
йши	-5323
кла	-5324
лав	-5325
так	-5326
тун	-5327
ули	-5328
чши	-5329
▁AC	-5330
▁AP	-5331
▁CD	-5332
▁CO	-5333
▁CS	-5334
▁Ca	-5335
▁Cl	-5336
▁Co	-5337
▁JO	-5338
▁JS	-5339
▁Ja	-5340
▁fa	-5341
agra	-5342
loop	-5343
vaSc	-5344
Алго	-5345
Слож	-5346
блич	-5347
ерши	-5348
здаё	-5349
золя	-5350
лава	-5351
низу	-5352
няет	-5353
сами	-5354
стра	-5355
шино	-5356
шины	-5357
шири	-5358
экап	-5359
▁Cal	-5360
▁Cle	-5361
▁Opa	-5362
▁Ите	-5363
▁Сло	-5364
▁пор	-5365
▁стэ	-5366
▁шаб	-5367
▁эле	-5368
Class	-5369
Event	-5370
Propa	-5371
abbit	-5372
alesc	-5373
alind	-5374
anceo	-5375
ancer	-5376
andle	-5377
anvas	-5378
argin	-5379
chemy	-5380
ciple	-5381
cture	-5382
ebsit	-5383
ebugg	-5384
efore	-5385
envir	-5386
exade	-5387
feren	-5388
gging	-5389
gramm	-5390
iffer	-5391
inter	-5392
ionar	-5393
ithms	-5394
iting	-5395
ition	-5396
local	-5397
loops	-5398
mance	-5399
XO	-5400
id	-5401
lS	-5402
my	-5403
Ви	-5404
из	-5405
кц	-5406
ыв	-5407
ёб	-5408
Gri	-5409
Mes	-5410
ang	-5411
cri	-5412
cti	-5413
ctu	-5414
ect	-5415
ges	-5416
lat	-5417
mis	-5418
nde	-5419
num	-5420
nva	-5421
pla	-5422
seF	-5423
seI	-5424
und	-5425
wor	-5426
xpl	-5427
Про	-5428
дви	-5429
дек	-5430
дул	-5431
еди	-5432
зуе	-5433
зуй	-5434
зую	-5435
моч	-5436
най	-5437
нам	-5438
оди	-5439
рди	-5440
таю	-5441
▁My	-5442
▁др	-5443
plat	-5444
plit	-5445
ание	-5446
гико	-5447
дино	-5448
дули	-5449
дуля	-5450
екта	-5451
екто	-5452
еред	-5453
еток	-5454
жние	-5455
звра	-5456
кста	-5457
льзу	-5458
пиза	-5459
ради	-5460
разу	-5461
ризу	-5462
функ	-5463
▁cle	-5464
▁isN	-5465
▁pse	-5466
▁Сте	-5467
▁выз	-5468
▁выс	-5469
▁дол	-5470
▁иск	-5471
mport	-5472
nique	-5473
okies	-5474
oreig	-5475
orted	-5476
ortes	-5477
plate	-5478
ption	-5479
reSQL	-5480
roble	-5481
ruthy	-5482
sform	-5483
ubmit	-5484
ullis	-5485
ymbol	-5486
ypeof	-5487
асную	-5488
ассис	-5489
асска	-5490
блако	-5491
блоны	-5492
вание	-5493
ванны	-5494
верку	-5495
ветов	-5496
вноме	-5497
войст	-5498
ворим	-5499
bu	-5500
ащ	-5501
ее	-5502
ье	-5503
cke	-5504
cks	-5505
ost	-5506
ste	-5507
xbo	-5508
вис	-5509
коп	-5510
мах	-5511
нап	-5512
нты	-5513
роч	-5514
рту	-5515
тва	-5516
▁Bu	-5517
▁DN	-5518
▁Fl	-5519
▁Op	-5520
▁Ov	-5521
▁хе	-5522
cing	-5523
cken	-5524
ingi	-5525
keyp	-5526
onst	-5527
бное	-5528
вное	-5529
гкий	-5530
екты	-5531
зный	-5532
йный	-5533
клад	-5534
мпро	-5535
наты	-5536
пера	-5537
рный	-5538
став	-5539
тили	-5540
тное	-5541
тура	-5542
тури	-5543
чита	-5544
яния	-5545
яный	-5546
▁Asy	-5547
▁Tra	-5548
▁opa	-5549
▁tod	-5550
▁var	-5551
▁мог	-5552
▁мощ	-5553
▁хра	-5554
eScri	-5555
inear	-5556
ining	-5557
ocket	-5558
orith	-5559
втома	-5560
гласо	-5561
готов	-5562
гради	-5563
грами	-5564
грамм	-5565
данны	-5566
дейст	-5567
дение	-5568
дения	-5569
держи	-5570
дерит	-5571
диная	-5572
диное	-5573
диный	-5574
доста	-5575
ейсов	-5576
елове	-5577
ениях	-5578
еогра	-5579
епцию	-5580
ерами	-5581
ерарх	-5582
ерати	-5583
ерато	-5584
ераци	-5585
ервер	-5586
ервис	-5587
ервно	-5588
ереве	-5589
ереда	-5590
ереза	-5591
ереме	-5592
ертек	-5593
еряет	-5594
еское	-5595
ессор	-5596
етсво	-5597
жения	-5598
жност	-5599
bm	-5600
mm	-5601
зл	-5602
йш	-5603
хс	-5604
ых	-5605
Med	-5606
bou	-5607
dro	-5608
ede	-5609
edi	-5610
eed	-5611
eur	-5612
ict	-5613
ken	-5614
loo	-5615
low	-5616
niq	-5617
olo	-5618
rob	-5619
rog	-5620
rop	-5621
rox	-5622
ual	-5623
wal	-5624
аты	-5625
аци	-5626
бав	-5627
вим	-5628
дне	-5629
дов	-5630
еку	-5631
зви	-5632
мме	-5633
сов	-5634
тки	-5635
узе	-5636
хно	-5637
ыкл	-5638
яви	-5639
ядо	-5640
язы	-5641
▁DD	-5642
▁Dj	-5643
▁no	-5644
▁ro	-5645
▁Ав	-5646
▁ло	-5647
adec	-5648
ling	-5649
redu	-5650
reed	-5651
доло	-5652
ладо	-5653
лает	-5654
лгор	-5655
ледо	-5656
меща	-5657
ноже	-5658
рави	-5659
редо	-5660
роща	-5661
тодо	-5662
ункц	-5663
ьюте	-5664
яние	-5665
▁Dis	-5666
▁clo	-5667
▁flo	-5668
▁mes	-5669
lexit	-5670
гляет	-5671
еляет	-5672
закци	-5673
зволя	-5674
здава	-5675
здани	-5676
здать	-5677
зника	-5678
зован	-5679
зрабо	-5680
ивает	-5681
ирова	-5682
ирует	-5683
исыва	-5684
итать	-5685
каждо	-5686
кажду	-5687
кание	-5688
катор	-5689
кация	-5690
кольз	-5691
краща	-5692
крими	-5693
лавно	-5694
лассу	-5695
лгори	-5696
лгрит	-5697
левый	-5698
лизме	-5699
::	-5700
gu	-5701
ne	-5702
еч	-5703
зн	-5704
нх	-5705
оч	-5706
ьн	-5707
ann	-5708
che	-5709
cod	-5710
ebG	-5711
ech	-5712
how	-5713
где	-5714
даю	-5715
ден	-5716
дну	-5717
ерх	-5718
ечи	-5719
ила	-5720
имы	-5721
ину	-5722
кту	-5723
люд	-5724
низ	-5725
нну	-5726
рал	-5727
рив	-5728
ски	-5729
ств	-5730
чну	-5731
ьно	-5732
▁Ma	-5733
▁Ra	-5734
entL	-5735
ient	-5736
work	-5737
дачи	-5738
дери	-5739
емен	-5740
ляют	-5741
рачи	-5742
ргра	-5743
ритм	-5744
росо	-5745
трук	-5746
чива	-5747
чить	-5748
чные	-5749
▁Mes	-5750
▁Red	-5751
▁клю	-5752
▁пам	-5753
erfor	-5754
plice	-5755
ассив	-5756
ектор	-5757
ервый	-5758
жение	-5759
заимо	-5760
ловар	-5761
ложно	-5762
ложны	-5763
лчани	-5764
льких	-5765
льная	-5766
льное	-5767
льные	-5768
льный	-5769
льшие	-5770
людям	-5771
ляетс	-5772
ляюща	-5773
марно	-5774
мацию	-5775
мация	-5776
менна	-5777
менно	-5778
менны	-5779
мента	-5780
менто	-5781
менты	-5782
мерич	-5783
мичес	-5784
молча	-5785
мость	-5786
награ	-5787
надца	-5788
намич	-5789
невны	-5790
нение	-5791
нения	-5792
нност	-5793
нными	-5794
новом	-5795
нутри	-5796
нципу	-5797
онная	-5798
ормат	-5799
AC	-5800
si	-5801
нф	-5802
пт	-5803
юд	-5804
ях	-5805
ebS	-5806
get	-5807
lut	-5808
reS	-5809
ueu	-5810
Хеш	-5811
вре	-5812
дко	-5813
дох	-5814
нси	-5815
сси	-5816
тся	-5817
ями	-5818
▁Fa	-5819
▁Fr	-5820
▁ит	-5821
▁ор	-5822
Exce	-5823
cket	-5824
ging	-5825
hain	-5826
imum	-5827
onar	-5828
rint	-5829
Расс	-5830
Тран	-5831
дста	-5832
ервы	-5833
ерси	-5834
ески	-5835
есси	-5836
ибли	-5837
йств	-5838
кции	-5839
нтен	-5840
нтер	-5841
оста	-5842
ранс	-5843
роса	-5844
росы	-5845
тран	-5846
хран	-5847
ыста	-5848
ятст	-5849
▁Fle	-5850
▁Flo	-5851
▁For	-5852
▁RES	-5853
▁bet	-5854
▁bra	-5855
▁net	-5856
▁баз	-5857
▁деп	-5858
▁ней	-5859
orage	-5860
мации	-5861
писка	-5862
писки	-5863
равст	-5864
равый	-5865
ранит	-5866
раниц	-5867
ранти	-5868
ратор	-5869
раузе	-5870
рафик	-5871
рация	-5872
рграм	-5873
рейка	-5874
ресси	-5875
рилож	-5876
римен	-5877
ритма	-5878
рност	-5879
ровки	-5880
ровку	-5881
ровне	-5882
рокер	-5883
роная	-5884
роння	-5885
ртиру	-5886
руппа	-5887
ряющи	-5888
севдо	-5889
сиров	-5890
сколь	-5891
сстве	-5892
стана	-5893
стано	-5894
ством	-5895
стный	-5896
стори	-5897
сторо	-5898
стото	-5899
AM	-5900
Ho	-5901
ec	-5902
ив	-5903
▁?	-5904
Red	-5905
Ser	-5906
Vue	-5907
add	-5908
anc	-5909
ant	-5910
ebp	-5911
ebs	-5912
ebu	-5913
ege	-5914
isk	-5915
isp	-5916
nin	-5917
omm	-5918
opt	-5919
pan	-5920
ult	-5921
xad	-5922
айл	-5923
ебя	-5924
зад	-5925
зыр	-5926
коо	-5927
тен	-5928
тие	-5929
тла	-5930
узы	-5931
ура	-5932
▁Te	-5933
▁im	-5934
▁По	-5935
▁га	-5936
▁гл	-5937
▁ро	-5938
adth	-5939
alue	-5940
anva	-5941
ctic	-5942
efle	-5943
efor	-5944
flin	-5945
play	-5946
pres	-5947
stan	-5948
айши	-5949
вдок	-5950
казы	-5951
лизо	-5952
люче	-5953
полн	-5954
рное	-5955
рсия	-5956
рядо	-5957
сова	-5958
торы	-5959
туал	-5960
▁hel	-5961
▁inj	-5962
▁inl	-5963
▁vir	-5964
▁ани	-5965
▁зна	-5966
▁изб	-5967
▁обу	-5968
▁пай	-5969
ringi	-5970
ssion	-5971
загру	-5972
ндром	-5973
новре	-5974
порти	-5975
стран	-5976
стреч	-5977
табли	-5978
тации	-5979
тация	-5980
терич	-5981
тиров	-5982
тного	-5983
товно	-5984
товое	-5985
томар	-5986
туали	-5987
узере	-5988
уфери	-5989
фрова	-5990
цессо	-5991
циони	-5992
чайши	-5993
чения	-5994
ческа	-5995
ческо	-5996
числи	-5997
чност	-5998
шедши	-5999
JO	-6000
dd	-6001
lk	-6002
og	-6003
дл	-6004
рш	-6005
dex	-6006
efa	-6007
ems	-6008
exp	-6009
urn	-6010
urs	-6011
Нор	-6012
ает	-6013
веч	-6014
вле	-6015
вяз	-6016
имо	-6017
мол	-6018
мощ	-6019
тны	-6020
фов	-6021
фор	-6022
▁Ba	-6023
▁Bi	-6024
▁Bo	-6025
▁GP	-6026
▁Ge	-6027
▁sc	-6028
exad	-6029
exce	-6030
inar	-6031
lice	-6032
ndef	-6033
stem	-6034
Спис	-6035
дани	-6036
етка	-6037
ичес	-6038
льну	-6039
маль	-6040
нимо	-6041
орди	-6042
писа	-6043
пиши	-6044
тизи	-6045
тифи	-6046
фики	-6047
▁Bor	-6048
▁Clo	-6049
▁Gri	-6050
▁HTM	-6051
▁Tem	-6052
▁nex	-6053
▁red	-6054
▁reg	-6055
▁sta	-6056
▁sto	-6057
▁tex	-6058
▁биз	-6059
▁сод	-6060
▁фор	-6061
ement	-6062
lexbo	-6063
Норма	-6064
исимо	-6065
йства	-6066
ласте	-6067
писко	-6068
рован	-6069
фрует	-6070
шения	-6071
шибка	-6072
шибку	-6073
шиное	-6074
щаетс	-6075
щающа	-6076
щения	-6077
ывает	-6078
ютера	-6079
ющаяс	-6080
янием	-6081
янная	-6082
яющих	-6083
ённая	-6084
▁Clos	-6085
▁Cook	-6086
▁Djan	-6087
▁Dock	-6088
▁Exce	-6089
▁Opac	-6090
▁Over	-6091
▁Pyth	-6092
▁SQLA	-6093
▁Tran	-6094
▁WebG	-6095
▁Webp	-6096
▁Work	-6097
▁buil	-6098
▁call	-6099
DD	-6100
SV	-6101
sf	-6102
аз	-6103
ат	-6104
ид	-6105
ум	-6106
ьм	-6107
Nod	-6108
Num	-6109
arg	-6110
eSc	-6111
mum	-6112
rum	-6113
ави	-6114
аме	-6115
вод	-6116
гре	-6117
зла	-6118
нед	-6119
тур	-6120
уче	-6121
яют	-6122
▁LI	-6123
▁No	-6124
▁Se	-6125
▁jo	-6126
▁Ин	-6127
▁еж	-6128
▁са	-6129
ases	-6130
grad	-6131
over	-6132
plex	-6133
tate	-6134
быти	-6135
вяза	-6136
вязы	-6137
дном	-6138
елек	-6139
лыти	-6140
нант	-6141
прав	-6142
скла	-6143
таци	-6144
▁Mat	-6145
▁Med	-6146
▁mas	-6147
▁nul	-6148
▁Сес	-6149
▁Сет	-6150
▁нов	-6151
arseI	-6152
indro	-6153
rogra	-6154
блице	-6155
блицу	-6156
вяный	-6157
грани	-6158
граци	-6159
денти	-6160
инима	-6161
истем	-6162
истен	-6163
носто	-6164
обыти	-6165
ронно	-6166
ронны	-6167
рёбер	-6168
тельс	-6169
тичес	-6170
ческу	-6171
щений	-6172
▁Back	-6173
▁Bran	-6174
▁Flas	-6175
▁bran	-6176
▁clas	-6177
▁conv	-6178
▁cook	-6179
▁decl	-6180
▁dept	-6181
▁doub	-6182
▁ever	-6183
▁file	-6184
▁fire	-6185
▁forE	-6186
▁link	-6187
▁obje	-6188
▁opac	-6189
▁over	-6190
▁pseu	-6191
▁shif	-6192
▁stru	-6193
▁tech	-6194
▁tran	-6195
▁wind	-6196
▁Ауте	-6197
▁Гене	-6198
▁Дава	-6199
XM	-6200
Бэ	-6201
Мо	-6202
оз	-6203
чт	-6204
ёж	-6205
eap	-6206
ffl	-6207
les	-6208
nct	-6209
ubm	-6210
Вир	-6211
амя	-6212
бно	-6213
еря	-6214
лищ	-6215
мми	-6216
сей	-6217
упа	-6218
хся	-6219
яни	-6220
▁Пс	-6221
back	-6222
erat	-6223
imal	-6224
ndom	-6225
osit	-6226
uble	-6227
ubst	-6228
бину	-6229
бира	-6230
борк	-6231
воей	-6232
дкой	-6233
днов	-6234
есса	-6235
икро	-6236
лоны	-6237
мето	-6238
нуже	-6239
пцию	-6240
ремя	-6241
ступ	-6242
теже	-6243
типа	-6244
фрей	-6245
▁Typ	-6246
▁bor	-6247
▁rec	-6248
▁еже	-6249
acken	-6250
erges	-6251
range	-6252
ventL	-6253
бытия	-6254
ектов	-6255
кацию	-6256
лассы	-6257
новля	-6258
новно	-6259
рытия	-6260
ступо	-6261
туаль	-6262
цесса	-6263
ытиях	-6264
▁Post	-6265
▁WebS	-6266
▁conc	-6267
▁cond	-6268
▁cont	-6269
▁Квад	-6270
▁Клас	-6271
▁Моду	-6272
▁Напи	-6273
▁Памя	-6274
▁Пара	-6275
▁Стре	-6276
▁ауте	-6277
▁бала	-6278
▁безо	-6279
▁бина	-6280
▁вдох	-6281
▁верх	-6282
▁вось	-6283
▁впра	-6284
▁выпо	-6285
▁выра	-6286
▁высо	-6287
▁гене	-6288
▁даны	-6289
▁деле	-6290
▁дест	-6291
▁доку	-6292
▁доме	-6293
▁допо	-6294
▁дост	-6295
▁ежед	-6296
▁замы	-6297
▁запу	-6298
▁избы	-6299
AP	-6300
Bi	-6301
Lo	-6302
Mo	-6303
fa	-6304
Ве	-6305
Ми	-6306
аг	-6307
вк	-6308
лч	-6309
фы	-6310
чн	-6311
LID	-6312
cre	-6313
diu	-6314
eyf	-6315
lve	-6316
onm	-6317
Объ	-6318
гин	-6319
гия	-6320
ерк	-6321
има	-6322
мет	-6323
оды	-6324
род	-6325
ряю	-6326
шаб	-6327
щая	-6328
щий	-6329
щищ	-6330
яза	-6331
▁un	-6332
▁ес	-6333
able	-6334
dial	-6335
ever	-6336
fter	-6337
sage	-6338
thon	-6339
verf	-6340
ynam	-6341
айте	-6342
варя	-6343
вори	-6344
вуме	-6345
гика	-6346
ксис	-6347
лате	-6348
люча	-6349
поря	-6350
ряют	-6351
токо	-6352
чных	-6353
шаго	-6354
шает	-6355
▁Com	-6356
▁asy	-6357
▁dis	-6358
▁som	-6359
▁und	-6360
▁ото	-6361
eries	-6362
gradi	-6363
isten	-6364
гикой	-6365
зводи	-6366
нтент	-6367
плыти	-6368
▁Испо	-6369
▁заши	-6370
▁защи	-6371
▁изве	-6372
▁инст	-6373
▁квад	-6374
▁кодо	-6375
▁конт	-6376
▁конц	-6377
▁коро	-6378
▁кото	-6379
▁лине	-6380
▁мани	-6381
▁масс	-6382
▁множ	-6383
▁моде	-6384
▁моно	-6385
▁набо	-6386
▁нало	-6387
▁нати	-6388
▁нахо	-6389
▁небо	-6390
▁неже	-6391
▁ниче	-6392
▁обес	-6393
▁обла	-6394
▁обме	-6395
▁обте	-6396
▁обък	-6397
▁окру	-6398
▁опис	-6399
hy	-6400
дш	-6401
ил	-6402
рг	-6403
ья	-6404
cus	-6405
eig	-6406
gat	-6407
rec	-6408
syn	-6409
ады	-6410
вни	-6411
вуй	-6412
глы	-6413
доч	-6414
ора	-6415
пию	-6416
пло	-6417
рио	-6418
сте	-6419
тчи	-6420
хем	-6421
▁Lo	-6422
▁XM	-6423
▁XO	-6424
▁co	-6425
▁Ау	-6426
▁ок	-6427
acti	-6428
eolo	-6429
ithm	-6430
oint	-6431
siti	-6432
ypeo	-6433
акци	-6434
бави	-6435
енти	-6436
инта	-6437
ицио	-6438
колы	-6439
мены	-6440
раба	-6441
сста	-6442
тома	-6443
ходи	-6444
▁COR	-6445
▁NoS	-6446
▁Ser	-6447
▁blo	-6448
▁fil	-6449
▁fir	-6450
▁qui	-6451
▁всп	-6452
▁пос	-6453
achin	-6454
actor	-6455
fline	-6456
акция	-6457
венно	-6458
вусто	-6459
димая	-6460
исима	-6461
исимы	-6462
ласти	-6463
ласть	-6464
писок	-6465
циона	-6466
▁Call	-6467
▁fact	-6468
▁выхо	-6469
▁клас	-6470
▁обно	-6471
▁опре	-6472
▁опти	-6473
▁орга	-6474
▁оста	-6475
▁отде	-6476
▁отла	-6477
▁пали	-6478
▁пара	-6479
▁паро	-6480
▁пира	-6481
▁пито	-6482
▁плав	-6483
▁поби	-6484
▁пого	-6485
▁поря	-6486
▁пото	-6487
▁прак	-6488
▁први	-6489
▁прев	-6490
▁преи	-6491
▁прек	-6492
▁прео	-6493
▁прив	-6494
▁прин	-6495
▁приш	-6496
▁пров	-6497
▁прог	-6498
▁проз	-6499
ff	-6500
ию	-6501
ог	-6502
це	-6503
ыз	-6504
awa	-6505
bas	-6506
opP	-6507
opm	-6508
vir	-6509
зуя	-6510
ной	-6511
рса	-6512
сни	-6513
уля	-6514
урс	-6515
усо	-6516
что	-6517
шед	-6518
щее	-6519
▁''	-6520
▁Na	-6521
▁pa	-6522
▁Ба	-6523
▁сч	-6524
atab	-6525
bles	-6526
irew	-6527
irst	-6528
lick	-6529
mary	-6530
ongo	-6531
ptim	-6532
ropa	-6533
ашин	-6534
дава	-6535
драт	-6536
икси	-6537
мизи	-6538
ндек	-6539
ндро	-6540
повы	-6541
прин	-6542
рько	-6543
токе	-6544
уров	-6545
шест	-6546
▁вых	-6547
▁гип	-6548
▁ток	-6549
agram	-6550
arseF	-6551
inary	-6552
ionSt	-6553
ventD	-6554
гумен	-6555
ершин	-6556
зичес	-6557
икрос	-6558
льную	-6559
нтейн	-6560
нтифи	-6561
отека	-6562
ратки	-6563
рсами	-6564
тност	-6565
уника	-6566
чение	-6567
▁Mess	-6568
▁mess	-6569
▁redu	-6570
▁sear	-6571
▁stop	-6572
▁бата	-6573
▁выше	-6574
▁пози	-6575
▁прои	-6576
▁прос	-6577
▁проц	-6578
▁проч	-6579
▁прош	-6580
▁прри	-6581
▁пуст	-6582
▁разб	-6583
▁раст	-6584
▁регу	-6585
▁резу	-6586
▁реку	-6587
▁реля	-6588
▁ресу	-6589
▁реши	-6590
▁сбор	-6591
▁сего	-6592
▁скри	-6593
▁скру	-6594
▁сооб	-6595
▁срав	-6596
▁срти	-6597
▁стре	-6598
▁схем	-6599
CS	-6600
iz	-6601
tw	-6602
ие	-6603
кк	-6604
ую	-6605
ass	-6606
tes	-6607
xed	-6608
аро	-6609
стё	-6610
▁RE	-6611
▁ел	-6612
▁ск	-6613
▁фо	-6614
ruth	-6615
браж	-6616
дком	-6617
ложе	-6618
лока	-6619
низо	-6620
тыва	-6621
учши	-6622
яющи	-6623
▁HTT	-6624
▁sol	-6625
elect	-6626
eoloc	-6627
expre	-6628
learn	-6629
асинх	-6630
втори	-6631
вуйте	-6632
иблио	-6633
инами	-6634
йстви	-6635
кации	-6636
лекта	-6637
лекто	-6638
мплек	-6639
преде	-6640
ранза	-6641
рьком	-6642
сурса	-6643
тенти	-6644
▁Prom	-6645
▁Prox	-6646
▁Spre	-6647
▁back	-6648
▁bitw	-6649
▁neur	-6650
▁prin	-6651
▁spre	-6652
▁нуже	-6653
▁объе	-6654
▁очер	-6655
▁преп	-6656
▁тако	-6657
▁узла	-6658
▁урав	-6659
▁уско	-6660
▁учат	-6661
▁фрей	-6662
▁чере	-6663
▁шест	-6664
▁шири	-6665
▁экра	-6666
Defaul	-6667
Listen	-6668
Propag	-6669
adding	-6670
adecim	-6671
alStor	-6672
anning	-6673
astAPI	-6674
cation	-6675
ctions	-6676
dEvent	-6677
eakMap	-6678
ection	-6679
eflect	-6680
ervice	-6681
ession	-6682
etween	-6683
etwork	-6684
gation	-6685
greSQL	-6686
iction	-6687
iteral	-6688
keyfra	-6689
keypre	-6690
lative	-6691
lexbox	-6692
mation	-6693
nagram	-6694
nction	-6695
ndefin	-6696
oalesc	-6697
ongoDB	-6698
ontend	-6699
Li	-6700
Nu	-6701
bp	-6702
ft	-6703
ma	-6704
yt	-6705
ьз	-6706
XSS	-6707
bje	-6708
hif	-6709
iff	-6710
mic	-6711
rap	-6712
sol	-6713
sqr	-6714
yna	-6715
Рас	-6716
вен	-6717
дос	-6718
зга	-6719
лям	-6720
мму	-6721
нан	-6722
нут	-6723
оде	-6724
ост	-6725
сев	-6726
тме	-6727
▁Во	-6728
▁Да	-6729
▁Мо	-6730
▁На	-6731
▁лё	-6732
Unit	-6733
ango	-6734
ices	-6735
olut	-6736
ures	-6737
вляя	-6738
вной	-6739
далё	-6740
даёт	-6741
жады	-6742
цикл	-6743
ципу	-6744
▁alg	-6745
▁cre	-6746
▁gre	-6747
▁gri	-6748
▁Ней	-6749
▁бра	-6750
▁выч	-6751
▁нуж	-6752
▁удо	-6753
▁язы	-6754
ested	-6755
iable	-6756
oncat	-6757
verfl	-6758
вляют	-6759
еребо	-6760
курси	-6761
лгорт	-6762
лелиз	-6763
лизко	-6764
лённы	-6765
новлё	-6766
склад	-6767
ункци	-6768
шрину	-6769
явить	-6770
▁Expl	-6771
▁mach	-6772
▁syst	-6773
▁Дере	-6774
Select	-6775
oreign	-6776
orkers	-6777
radial	-6778
ransit	-6779
ration	-6780
revent	-6781
rimary	-6782
ringif	-6783
riting	-6784
rotate	-6785
sitive	-6786
ssions	-6787
tation	-6788
ullish	-6789
vaScri	-6790
yClass	-6791
ynamic	-6792
Виртуа	-6793
авляет	-6794
акетов	-6795
асност	-6796
ассива	-6797
ассиво	-6798
асскаж	-6799
Fa	-6800
So	-6801
ea	-6802
pr	-6803
др	-6804
кэ	-6805
сб	-6806
сч	-6807
and	-6808
lch	-6809
vel	-6810
еле	-6811
ите	-6812
рви	-6813
тон	-6814
фун	-6815
▁DO	-6816
▁вп	-6817
новл	-6818
рава	-6819
реак	-6820
рная	-6821
след	-6822
чени	-6823
яюща	-6824
▁abs	-6825
▁dec	-6826
▁num	-6827
▁sli	-6828
▁жад	-6829
▁зав	-6830
ented	-6831
ransl	-6832
ubble	-6833
undle	-6834
айтон	-6835
вающи	-6836
ерсия	-6837
логин	-6838
лучши	-6839
мпрот	-6840
нципы	-6841
ротки	-6842
следо	-6843
ступа	-6844
фичес	-6845
▁Rege	-6846
▁bubb	-6847
▁modu	-6848
▁webp	-6849
▁жады	-6850
▁кажд	-6851
▁поль	-6852
▁пузы	-6853
▁стру	-6854
▁фоно	-6855
▁шаго	-6856
bsolut	-6857
erform	-6858
onment	-6859
opment	-6860
stance	-6861
ystems	-6862
айтоне	-6863
бивает	-6864
бивают	-6865
бирает	-6866
ватель	-6867
венной	-6868
веряет	-6869
висимо	-6870
висимы	-6871
влетво	-6872
вномер	-6873
воание	-6874
воляет	-6875
времен	-6876
вывает	-6877
гирова	-6878
готовы	-6879
грамма	-6880
грамме	-6881
грамми	-6882
деляет	-6883
диняет	-6884
дителя	-6885
дологи	-6886
ерархи	-6887
ератор	-6888
ерации	-6889
ерация	-6890
ервера	-6891
ервере	-6892
ервном	-6893
еремен	-6894
жество	-6895
зависи	-6896
загруз	-6897
зданны	-6898
зирова	-6899
Au	-6900
Во	-6901
ash	-6902
egr	-6903
goD	-6904
дёж	-6905
еза	-6906
ива	-6907
ики	-6908
мес	-6909
нню	-6910
ння	-6911
нос	-6912
обы	-6913
они	-6914
рех	-6915
сли	-6916
▁ov	-6917
▁yo	-6918
▁Те	-6919
▁фа	-6920
Defa	-6921
atem	-6922
egat	-6923
orit	-6924
ubbl	-6925
ymbo	-6926
воич	-6927
доно	-6928
ерег	-6929
ержи	-6930
жива	-6931
мено	-6932
набо	-6933
ство	-6934
тами	-6935
▁Scr	-6936
▁ris	-6937
▁Инд	-6938
▁уча	-6939
akMap	-6940
event	-6941
graph	-6942
stAPI	-6943
кстов	-6944
▁clos	-6945
▁стра	-6946
actori	-6947
зовате	-6948
зработ	-6949
зывать	-6950
идимая	-6951
изводи	-6952
изичес	-6953
интакс	-6954
иртуал	-6955
исимая	-6956
исловы	-6957
истема	-6958
йроная	-6959
йронны	-6960
йствие	-6961
кользя	-6962
коуров	-6963
крытия	-6964
кумент	-6965
латель	-6966
лгорти	-6967
ледова	-6968
лекция	-6969
лемент	-6970
ливает	-6971
ливать	-6972
лизова	-6973
ллелиз	-6974
ловаря	-6975
логика	-6976
ложени	-6977
ложные	-6978
лочные	-6979
лочных	-6980
лучшие	-6981
льзует	-6982
льност	-6983
ляется	-6984
лярные	-6985
лёгкий	-6986
матизи	-6987
менедж	-6988
менени	-6989
менное	-6990
менный	-6991
меткой	-6992
мещает	-6993
мидаль	-6994
мирова	-6995
награм	-6996
нарное	-6997
нарный	-6998
нивает	-6999
низова	-7000
низуют	-7001
нималь	-7002
нипуля	-7003
нирова	-7004
нитель	-7005
нность	-7006
нструк	-7007
нтроли	-7008
нтроля	-7009
обытия	-7010
онолит	-7011
ордина	-7012
ормали	-7013
ормате	-7014
паковы	-7015
пирова	-7016
плытие	-7017
принта	-7018
работа	-7019
радиен	-7020
разует	-7021
ранзак	-7022
ранили	-7023
раницу	-7024
раницы	-7025
раткий	-7026
ратное	-7027
ращает	-7028
ргумен	-7029
реймво	-7030
рессив	-7031
ризует	-7032
рность	-7033
робное	-7034
ровани	-7035
ронами	-7036
ронная	-7037
роннюю	-7038
росерв	-7039
роткое	-7040
роцесс	-7041
рощает	-7042
руктур	-7043
рукции	-7044
рукция	-7045
ряющий	-7046
сивное	-7047
сивный	-7048
ставля	-7049
стории	-7050
сформа	-7051
таблиц	-7052
текста	-7053
тельны	-7054
темати	-7055
терами	-7056
тирова	-7057
тирует	-7058
тность	-7059
тображ	-7060
точном	-7061
трукту	-7062
тывает	-7063
тывать	-7064
ункцио	-7065
уннель	-7066
ускает	-7067
ускать	-7068
учение	-7069
фейсов	-7070
хновлё	-7071
ходяще	-7072
цессор	-7073
ционны	-7074
цирует	-7075
чередь	-7076
ческая	-7077
чивают	-7078
читься	-7079
широва	-7080
щающая	-7081
щённая	-7082
ьмерич	-7083
ьютера	-7084
являет	-7085
язвимо	-7086
ятству	-7087
▁Angul	-7088
▁Callb	-7089
▁Displ	-7090
▁Front	-7091
▁Posit	-7092
▁SQLAl	-7093
▁Templ	-7094
▁bread	-7095
▁bubbl	-7096
▁callb	-7097
▁chain	-7098
▁conce	-7099
▁datab	-7100
▁devel	-7101
▁displ	-7102
▁expre	-7103
▁firew	-7104
▁front	-7105
▁imple	-7106
▁integ	-7107
▁minim	-7108
▁optim	-7109
▁pract	-7110
▁query	-7111
▁recur	-7112
▁regul	-7113
▁retur	-7114
▁short	-7115
▁stick	-7116
▁subst	-7117
▁templ	-7118
▁truth	-7119
▁virtu	-7120
▁Объяс	-7121
▁Прото	-7122
▁Слова	-7123
▁адрес	-7124
▁асинх	-7125
▁балан	-7126
▁безоп	-7127
▁библи	-7128
▁бизне	-7129
▁блоки	-7130
▁быста	-7131
▁быстр	-7132
▁верси	-7133
▁верхн	-7134
▁вклад	-7135
▁включ	-7136
▁вложе	-7137
▁време	-7138
▁гаран	-7139
▁гибка	-7140
▁гипер	-7141
▁глуби	-7142
▁гради	-7143
▁грани	-7144
▁графа	-7145
▁двоич	-7146
▁двуме	-7147
▁дерев	-7148
▁добав	-7149
▁долго	-7150
▁домен	-7151
▁допол	-7152
▁доста	-7153
▁други	-7154
▁запис	-7155
▁запре	-7156
▁запро	-7157
▁запус	-7158
▁извле	-7159
▁изоли	-7160
▁изоля	-7161
▁интел	-7162
▁каждо	-7163
▁кажду	-7164
▁ключе	-7165
▁комму	-7166
▁компь	-7167
▁корре	-7168
▁котор	-7169
▁кратч	-7170
▁линей	-7171
▁машин	-7172
▁метод	-7173
▁мигра	-7174
▁множе	-7175
▁модул	-7176
▁нагру	-7177
▁надёж	-7178
▁натив	-7179
▁обрат	-7180
▁обуче	-7181
▁остов	-7182
▁отлад	-7183
▁отмен	-7184
▁отсле	-7185
▁очере	-7186
▁перви	-7187
▁первы	-7188
▁перев	-7189
▁перег	-7190
▁перем	-7191
▁перех	-7192
▁плава	-7193
▁подст	-7194
▁подхо	-7195
▁полно	-7196
▁получ	-7197
▁помоч	-7198
▁помощ	-7199
▁поряд	-7200
▁посто	-7201
▁прави	-7202
▁преоб	-7203
▁прива	-7204
▁приве	-7205
▁прило	-7206
▁прина	-7207
▁прини	-7208
▁пришё	-7209
▁прочи	-7210
▁работ	-7211
▁разме	-7212
▁разни	-7213
▁разны	-7214
▁разра	-7215
▁реаль	-7216
▁рекур	-7217
▁ренде	-7218
▁сборк	-7219
▁свора	-7220
▁связа	-7221
▁скрип	-7222
▁снимо	-7223
▁собст	-7224
▁содер	-7225
▁состо	-7226
▁списо	-7227
▁строк	-7228
▁струк	-7229
▁схемо	-7230
▁такта	-7231
▁удаля	-7232
▁удалё	-7233
▁указа	-7234
▁уника	-7235
▁упоря	-7236
▁услов	-7237
▁фикси	-7238
▁функц	-7239
▁храня	-7240
abbitMQ	-7241
alancer	-7242
ariable	-7243
blesort	-7244
bsolute	-7245
chnique	-7246
ctionar	-7247
ddEvent	-7248
eScript	-7249
egative	-7250
environ	-7251
eration	-7252
etworks	-7253
icksort	-7254
imation	-7255
inciple	-7256
ionStor	-7257
irewall	-7258
itional	-7259
jection	-7260
lgorith	-7261
otation	-7262
ubbling	-7263
unction	-7264
ventDef	-7265
ySelect	-7266
Алгорит	-7267
асности	-7268
ассисте	-7269
асскажи	-7270
ашинное	-7271
бавляет	-7272
блиотек	-7273
блицами	-7274
бличном	-7275
ведение	-7276
ведения	-7277
висимая	-7278
висимые	-7279
вливает	-7280
вливать	-7281
втомати	-7282
готовых	-7283
дельная	-7284
дельный	-7285
динения	-7286
екурсия	-7287
ечивает	-7288
жеством	-7289
живания	-7290
заимоде	-7291
зволяет	-7292
зопасно	-7293
зультат	-7294
играция	-7295
иртуали	-7296
иртуаль	-7297
исывает	-7298
йронная	-7299
кользящ	-7300
кримина	-7301
кружние	-7302
кстовый	-7303
ктность	-7304
кумента	-7305
кументы	-7306
кусстве	-7307
лгоритм	-7308
лектору	-7309
лемента	-7310
лементо	-7311
лементы	-7312
лиянием	-7313
логикой	-7314
ложение	-7315
ложений	-7316
ложения	-7317
ложност	-7318
льность	-7319
лючение	-7320
лючения	-7321
матичес	-7322
менений	-7323
менения	-7324
модейст	-7325
надцате	-7326
нальные	-7327
нальный	-7328
намичес	-7329
невными	-7330
никации	-7331
нимации	-7332
нимация	-7333
новлять	-7334
новного	-7335
нтейнер	-7336
общений	-7337
общения	-7338
ориенти	-7339
ормации	-7340
ормацию	-7341
пизацию	-7342
писания	-7343
процесс	-7344
пятству	-7345
работчи	-7346
равляет	-7347
равству	-7348
ражения	-7349
ранения	-7350
раузере	-7351
ргумент	-7352
рейками	-7353
рованно	-7354
рованны	-7355
ртирова	-7356
ртирует	-7357
руктура	-7358
руктури	-7359
складки	-7360
следова	-7361
сования	-7362
ственно	-7363
стирова	-7364
стояние	-7365
стояния	-7366
стоянно	-7367
сурсами	-7368
тавляет	-7369
татичес	-7370
текание	-7371
тельная	-7372
тельное	-7373
тельный	-7374
тератор	-7375
терация	-7376
учиться	-7377
фикатор	-7378
фикацию	-7379
фикация	-7380
фически	-7381
храняет	-7382
цатерич	-7383
ционным	-7384
ческого	-7385
шедшими	-7386
шифрова	-7387
ёжность	-7388
▁Except	-7389
▁conver	-7390
▁debugg	-7391
▁differ	-7392
▁keypre	-7393
▁optimi	-7394
▁option	-7395
▁palind	-7396
▁parseF	-7397
▁parseI	-7398
▁proble	-7399
▁progra	-7400
▁recurs	-7401
▁statem	-7402
▁struct	-7403
▁transl	-7404
▁websit	-7405
▁Генера	-7406
▁Исполь	-7407
▁алгорт	-7408
▁алгрит	-7409
▁битовы	-7410
▁браузе	-7411
▁буфери	-7412
▁быстра	-7413
▁вектор	-7414
▁внедре	-7415
▁внедри	-7416
▁внешни	-7417
▁возвра	-7418
▁восста	-7419
▁времен	-7420
▁встреч	-7421
▁вычисл	-7422
▁генера	-7423
▁геогра	-7424
▁двусто	-7425
▁деревь	-7426
▁добави	-7427
▁замыка	-7428
▁записы	-7429
▁иденти	-7430
▁извест	-7431
▁изменя	-7432
▁интерн	-7433
▁интерф	-7434
▁коллек	-7435
▁конста	-7436
▁контей	-7437
▁контек	-7438
▁контен	-7439
▁концеп	-7440
▁менедж	-7441
▁метода	-7442
▁методо	-7443
▁микрос	-7444
▁модуле	-7445
▁модуля	-7446
▁нагруз	-7447
▁находя	-7448
▁неболь	-7449
▁обраба	-7450
▁операн	-7451
▁опреде	-7452
▁оптими	-7453
▁палинд	-7454
▁память	-7455
▁первич	-7456
▁перебо	-7457
▁переве	-7458
▁перево	-7459
▁переме	-7460
▁перехо	-7461
▁побито	-7462
▁погово	-7463
▁полноф	-7464
▁получа	-7465
▁послед	-7466
▁практи	-7467
▁превра	-7468
▁прекра	-7469
▁приват	-7470
▁примен	-7471
▁принад	-7472
▁проста	-7473
▁просто	-7474
▁пузырь	-7475
▁работо	-7476
▁раскла	-7477
▁резерв	-7478
▁резуль	-7479
▁решает	-7480
▁сервер	-7481
▁сервис	-7482
▁сетево	-7483
▁сетевы	-7484
▁систем	-7485
▁сложны	-7486
▁создаю	-7487
▁создаё	-7488
▁списка	-7489
▁списко	-7490
▁строка	-7491
▁типовы	-7492
▁умолча	-7493
▁ускоря	-7494
▁услови	-7495
▁функци	-7496
▁являет	-7497
adecimal	-7498
ceptions	-7499
ditional	-7500
erations	-7501
ergesort	-7502
inciples	-7503
learning	-7504
location	-7505
pagation	-7506
ransform	-7507
stringif	-7508
vaScript	-7509
ventList	-7510
аследова	-7511
блиотека	-7512
ванность	-7513
вдокласс	-7514
вечность	-7515
влетворя	-7516
вномерно	-7517
вязывает	-7518
гласован	-7519
гулярные	-7520
доносный	-7521
дочивают	-7522
дравству	-7523
дёжность	-7524
единения	-7525
ейронная	-7526
еловечес	-7527
еструкту	-7528
желатель	-7529
загрузки	-7530
зировать	-7531
значения	-7532
зопасную	-7533
зультате	-7534
инхронно	-7535
инхронны	-7536
ирование	-7537
казывает	-7538
кругляет	-7539
кружение	-7540
лансиров	-7541
лгоритма	-7542
лгоритмы	-7543
лежность	-7544
лизовать	-7545
личность	-7546
ложность	-7547
льзовате	-7548
марность	-7549
никально	-7550
нимациях	-7551
новления	-7552
новремен	-7553
печивает	-7554
пользова	-7555
работать	-7556
равнение	-7557
разработ	-7558
рамидаль	-7559
рачность	-7560
рованием	-7561
рованная	-7562
рованную	-7563
родителя	-7564
ртировка	-7565
ртировки	-7566
ртировку	-7567
сокоуров	-7568
спользуе	-7569
спользуй	-7570
спользуя	-7571
стороння	-7572
стоянная	-7573
страняет	-7574
теканием	-7575
тельност	-7576
тилизуют	-7577
торонами	-7578
точность	-7579
фицирует	-7580
фические	-7581
фрование	-7582
ходящего	-7583
щищённая	-7584
▁Postgre	-7585
▁SQLAlch	-7586
▁WebSock	-7587
▁anagram	-7588
▁complex	-7589
▁databas	-7590
▁develop	-7591
▁environ	-7592
▁parseIn	-7593
▁perform	-7594
▁pointer	-7595
▁practic	-7596
▁stopPro	-7597
▁Градиен	-7598
▁Квадрат	-7599
▁Паралле	-7600
▁Перемен	-7601
▁Стрелоч	-7602
▁Структу	-7603
▁алгорти	-7604
▁анаграм	-7605
▁ассисте	-7606
▁виртуал	-7607
▁возника	-7608
▁вставля	-7609
▁выполни	-7610
▁вычисли	-7611
▁градиен	-7612
▁динамич	-7613
▁	-7614
о	-7615
а	-7616
е	-7617
т	-7618
и	-7619
н	-7620
с	-7621
р	-7622
к	-7623
в	-7624
e	-7625
л	-7626
я	-7627
t	-7628
a	-7629
м	-7630
п	-7631
o	-7632
д	-7633
i	-7634
.	-7635
r	-7636
б	-7637
n	-7638
ы	-7639
у	-7640
s	-7641
з	-7642
l	-7643
?	-7644
c	-7645
ь	-7646
ж	-7647
p	-7648
d	-7649
й	-7650
-	-7651
Ч	-7652
ч	-7653
h	-7654
г	-7655
х	-7656
S	-7657
m	-7658
u	-7659
ц	-7660
b	-7661
f	-7662
ъ	-7663
,	-7664
:	-7665
y	-7666
g	-7667
w	-7668
ф	-7669
ю	-7670
О	-7671
Р	-7672
э	-7673
P	-7674
ш	-7675
k	-7676
T	-7677
v	-7678
x	-7679
W	-7680
К	-7681
D	-7682
L	-7683
(	-7684
)	-7685
A	-7686
O	-7687
I	-7688
щ	-7689
H	-7690
N	-7691
=	-7692
M	-7693
C	-7694
'	-7695
J	-7696
R	-7697
ё	-7698
F	-7699
Q	-7700
E	-7701
G	-7702
B	-7703
j	-7704
q	-7705
П	-7706
/	-7707
1	-7708
С	-7709
2	-7710
И	-7711
X	-7712
*	-7713
0	-7714
>	-7715
V	-7716
_	-7717
М	-7718
3	-7719
4	-7720
{	-7721
}	-7722
А	-7723
!	-7724
"	-7725
Б	-7726
Д	-7727
U	-7728
z	-7729
В	-7730
Г	-7731
Н	-7732
&	-7733
[	-7734
]	-7735
`	-7736
|	-7737
Т	-7738
Х	-7739
